{
  "[PAD]": 0,
  "[BOS]": 1,
  "[EOS]": 2,
  "[UNK]": 3,
  "!": 4,
  "\"": 5,
  "#": 6,
  "$": 7,
  "%": 8,
  "&": 9,
  "'": 10,
  "(": 11,
  ")": 12,
  "*": 13,
  "+": 14,
  ",": 15,
  "-": 16,
  ".": 17,
  "/": 18,
  "0": 19,
  "1": 20,
  "2": 21,
  "3": 22,
  "4": 23,
  "5": 24,
  "6": 25,
  "7": 26,
  "8": 27,
  "9": 28,
  ":": 29,
  ";": 30,
  "<": 31,
  "</w>": 32,
  "=": 33,
  ">": 34,
  "?": 35,
  "@": 36,
  "A": 37,
  "B": 38,
  "C": 39,
  "D": 40,
  "E": 41,
  "F": 42,
  "G": 43,
  "H": 44,
  "I": 45,
  "J": 46,
  "K": 47,
  "L": 48,
  "M": 49,
  "N": 50,
  "O": 51,
  "P": 52,
  "Q": 53,
  "R": 54,
  "S": 55,
  "T": 56,
  "U": 57,
  "V": 58,
  "W": 59,
  "X": 60,
  "Y": 61,
  "Z": 62,
  "[": 63,
  "\\": 64,
  "]": 65,
  "^": 66,
  "_": 67,
  "`": 68,
  "a": 69,
  "b": 70,
  "c": 71,
  "d": 72,
  "e": 73,
  "f": 74,
  "g": 75,
  "h": 76,
  "i": 77,
  "j": 78,
  "k": 79,
  "l": 80,
  "m": 81,
  "n": 82,
  "o": 83,
  "p": 84,
  "q": 85,
  "r": 86,
  "s": 87,
  "t": 88,
  "u": 89,
  "v": 90,
  "w": 91,
  "x": 92,
  "y": 93,
  "z": 94,
  "{": 95,
  "}": 96,
  "~": 97,
  "£": 98,
  "«": 99,
  "°": 100,
  "·": 101,
  "»": 102,
  "½": 103,
  "Æ": 104,
  "É": 105,
  "Ö": 106,
  "ß": 107,
  "à": 108,
  "á": 109,
  "â": 110,
  "ã": 111,
  "ä": 112,
  "å": 113,
  "æ": 114,
  "ç": 115,
  "è": 116,
  "é": 117,
  "ê": 118,
  "ë": 119,
  "í": 120,
  "î": 121,
  "ñ": 122,
  "ó": 123,
  "ô": 124,
  "ö": 125,
  "ø": 126,
  "ù": 127,
  "ú": 128,
  "ü": 129,
  "ā": 130,
  "ă": 131,
  "ą": 132,
  "ł": 133,
  "ń": 134,
  "ō": 135,
  "ő": 136,
  "Œ": 137,
  "œ": 138,
  "ū": 139,
  "ž": 140,
  "ș": 141,
  "ɔ": 142,
  "ə": 143,
  "ɡ": 144,
  "ɾ": 145,
  "ʁ": 146,
  "ʋ": 147,
  "ˈ": 148,
  "ː": 149,
  "̪": 150,
  "Δ": 151,
  "η": 152,
  "μ": 153,
  "ν": 154,
  "ο": 155,
  "ρ": 156,
  "ς": 157,
  "τ": 158,
  "ϰ": 159,
  "В": 160,
  "Е": 161,
  "Ф": 162,
  "а": 163,
  "в": 164,
  "г": 165,
  "д": 166,
  "е": 167,
  "и": 168,
  "л": 169,
  "м": 170,
  "н": 171,
  "о": 172,
  "р": 173,
  "т": 174,
  "ч": 175,
  "ь": 176,
  "ו": 177,
  "ח": 178,
  "ا": 179,
  "ب": 180,
  "ة": 181,
  "ت": 182,
  "د": 183,
  "س": 184,
  "ع": 185,
  "ل": 186,
  "ن": 187,
  "ي": 188,
  "‌": 189,
  "‍": 190,
  "‎": 191,
  "‏": 192,
  "–": 193,
  "—": 194,
  "‘": 195,
  "’": 196,
  "“": 197,
  "”": 198,
  "…": 199,
  "′": 200,
  "⁄": 201,
  "₹": 202,
  "久": 203,
  "之": 204,
  "五": 205,
  "今": 206,
  "倉": 207,
  "優": 208,
  "先": 209,
  "助": 210,
  "務": 211,
  "勝": 212,
  "咁": 213,
  "嘅": 214,
  "墓": 215,
  "夠": 216,
  "太": 217,
  "巻": 218,
  "幕": 219,
  "度": 220,
  "態": 221,
  "旅": 222,
  "日": 223,
  "時": 224,
  "服": 225,
  "未": 226,
  "架": 227,
  "槇": 228,
  "生": 229,
  "石": 230,
  "縅": 231,
  "致": 232,
  "質": 233,
  "迅": 234,
  "遊": 235,
  "道": 236,
  "郎": 237,
  "陣": 238,
  "鲁": 239,
  "黒": 240,
  "﻿": 241,
  "e</w>": 242,
  "th": 243,
  "d</w>": 244,
  "s</w>": 245,
  "t</w>": 246,
  "in": 247,
  ",</w>": 248,
  "er": 249,
  "an": 250,
  "the</w>": 251,
  "y</w>": 252,
  "on": 253,
  "en": 254,
  "ou": 255,
  "o</w>": 256,
  ".</w>": 257,
  "or": 258,
  "ed</w>": 259,
  "f</w>": 260,
  "ar": 261,
  "and</w>": 262,
  "ing": 263,
  "of</w>": 264,
  "re": 265,
  "al": 266,
  "to</w>": 267,
  "hi": 268,
  "ing</w>": 269,
  "er</w>": 270,
  "at</w>": 271,
  "st": 272,
  "a</w>": 273,
  "at": 274,
  "as</w>": 275,
  "in</w>": 276,
  "om": 277,
  "es": 278,
  "el": 279,
  "ha": 280,
  "it": 281,
  "he</w>": 282,
  "ow": 283,
  "I</w>": 284,
  "ch": 285,
  "on</w>": 286,
  "l</w>": 287,
  "wi": 288,
  "en</w>": 289,
  "for": 290,
  "e,</w>": 291,
  "wh": 292,
  "”</w>": 293,
  "that</w>": 294,
  "is": 295,
  "gh": 296,
  "be": 297,
  "is</w>": 298,
  "th</w>": 299,
  "ly</w>": 300,
  "as": 301,
  "ti": 302,
  "li": 303,
  ";</w>": 304,
  "le": 305,
  "was</w>": 306,
  "his</w>": 307,
  "ur": 308,
  "you": 309,
  "se": 310,
  "ac": 311,
  "ve</w>": 312,
  "ir": 313,
  "an</w>": 314,
  "no": 315,
  "ol": 316,
  "the": 317,
  "ri": 318,
  "es</w>": 319,
  "ch</w>": 320,
  "am": 321,
  "it</w>": 322,
  "un": 323,
  "ad": 324,
  "os": 325,
  "with</w>": 326,
  "ere</w>": 327,
  "ed": 328,
  "si": 329,
  "s,</w>": 330,
  "le</w>": 331,
  "ver": 332,
  "ro": 333,
  "de": 334,
  "k</w>": 335,
  "ut</w>": 336,
  "for</w>": 337,
  "ag": 338,
  "oo": 339,
  "ab": 340,
  "sh": 341,
  "ic": 342,
  "not</w>": 343,
  "m</w>": 344,
  "ld</w>": 345,
  "su": 346,
  "had</w>": 347,
  "ent": 348,
  "sa": 349,
  "il": 350,
  "n</w>": 351,
  "ould</w>": 352,
  "whi": 353,
  "con": 354,
  "all</w>": 355,
  "ne": 356,
  "y,</w>": 357,
  "be</w>": 358,
  "di": 359,
  "my</w>": 360,
  "om</w>": 361,
  "you</w>": 362,
  "us": 363,
  "or</w>": 364,
  "ati": 365,
  "al</w>": 366,
  "he": 367,
  "ow</w>": 368,
  "by</w>": 369,
  "fr": 370,
  "have</w>": 371,
  "our": 372,
  "ce</w>": 373,
  "her</w>": 374,
  ".”</w>": 375,
  "qu": 376,
  "ent</w>": 377,
  "com": 378,
  "em": 379,
  "ap": 380,
  "ter": 381,
  "up": 382,
  "e.</w>": 383,
  "ain": 384,
  "ec": 385,
  "oun": 386,
  "sp": 387,
  "but</w>": 388,
  "ght</w>": 389,
  "’s</w>": 390,
  "d,</w>": 391,
  "op": 392,
  "from</w>": 393,
  "ex": 394,
  "ul": 395,
  "ther</w>": 396,
  "one</w>": 397,
  "which</w>": 398,
  "ay</w>": 399,
  "s.</w>": 400,
  "ak": 401,
  "ther": 402,
  "this</w>": 403,
  "t,</w>": 404,
  "out</w>": 405,
  "so</w>": 406,
  "me</w>": 407,
  "tr": 408,
  "ver</w>": 409,
  "The</w>": 410,
  "sel": 411,
  "were</w>": 412,
  "id</w>": 413,
  "she</w>": 414,
  "g</w>": 415,
  "per": 416,
  "ar</w>": 417,
  "pre": 418,
  "ir</w>": 419,
  "are</w>": 420,
  "pl": 421,
  "!</w>": 422,
  "ff": 423,
  "man": 424,
  "str": 425,
  "very</w>": 426,
  "him": 427,
  "es,</w>": 428,
  "ough": 429,
  "mor": 430,
  "ay": 431,
  "ed,</w>": 432,
  "ll</w>": 433,
  "ted</w>": 434,
  "som": 435,
  "ter</w>": 436,
  "they</w>": 437,
  "own</w>": 438,
  "ess</w>": 439,
  "pro": 440,
  ",”</w>": 441,
  "lo": 442,
  "him</w>": 443,
  "im": 444,
  "w</w>": 445,
  "bo": 446,
  "fe": 447,
  "ep": 448,
  "and": 449,
  "et</w>": 450,
  "Mr": 451,
  "all": 452,
  "wor": 453,
  "her": 454,
  "been</w>": 455,
  "said</w>": 456,
  "der": 457,
  "et": 458,
  "id": 459,
  "their</w>": 460,
  "ev": 461,
  "av": 462,
  "kn": 463,
  "uc": 464,
  "par": 465,
  "would</w>": 466,
  "when</w>": 467,
  "your": 468,
  "no</w>": 469,
  "ard": 470,
  "ation": 471,
  "po": 472,
  "pr": 473,
  "ear": 474,
  "ose</w>": 475,
  "Th": 476,
  "?”</w>": 477,
  "ame</w>": 478,
  "ut": 479,
  "ough</w>": 480,
  "st</w>": 481,
  "ke</w>": 482,
  "anc": 483,
  "ell": 484,
  "Wh": 485,
  "ish": 486,
  "me": 487,
  "Mr.</w>": 488,
  "um": 489,
  "ast": 490,
  "ous</w>": 491,
  "so": 492,
  "cl": 493,
  "mo": 494,
  "ation</w>": 495,
  "end": 496,
  "gr": 497,
  "itt": 498,
  "y.</w>": 499,
  "bl": 500,
  "who</w>": 501,
  "tw": 502,
  ":</w>": 503,
  "our</w>": 504,
  "will</w>": 505,
  "ust</w>": 506,
  "ong</w>": 507,
  "ain</w>": 508,
  "ang": 509,
  "tur": 510,
  "aw": 511,
  "what</w>": 512,
  "able</w>": 513,
  "gre": 514,
  "your</w>": 515,
  "if</w>": 516,
  "into</w>": 517,
  "could</w>": 518,
  "est": 519,
  "ost</w>": 520,
  "thing</w>": 521,
  "mi": 522,
  "co": 523,
  "fi": 524,
  "It</w>": 525,
  "to": 526,
  "do": 527,
  "ad</w>": 528,
  "est</w>": 529,
  "some</w>": 530,
  "ate</w>": 531,
  "upon</w>": 532,
  "ce": 533,
  "ked</w>": 534,
  "there</w>": 535,
  "more</w>": 536,
  "But</w>": 537,
  "He</w>": 538,
  "ing,</w>": 539,
  "?</w>": 540,
  "se</w>": 541,
  "tion": 542,
  "whal": 543,
  "pp": 544,
  "loo": 545,
  "min": 546,
  "au": 547,
  "dis": 548,
  "old</w>": 549,
  "An": 550,
  "other</w>": 551,
  "pres": 552,
  "we</w>": 553,
  "ci": 554,
  "ound</w>": 555,
  "ity</w>": 556,
  "ast</w>": 557,
  "than</w>": 558,
  "af": 559,
  "ts</w>": 560,
  "“I</w>": 561,
  "!”</w>": 562,
  "its</w>": 563,
  "self</w>": 564,
  "tion</w>": 565,
  "ni": 566,
  "iti": 567,
  "en,</w>": 568,
  "any</w>": 569,
  "has</w>": 570,
  "up</w>": 571,
  "--": 572,
  "ely</w>": 573,
  "mu": 574,
  "most</w>": 575,
  "ard</w>": 576,
  "am</w>": 577,
  "like</w>": 578,
  "ved</w>": 579,
  "such</w>": 580,
  "ood</w>": 581,
  "==": 582,
  "ally</w>": 583,
  "cr": 584,
  "gi": 585,
  "er,</w>": 586,
  "litt": 587,
  "go": 588,
  "man</w>": 589,
  "ake</w>": 590,
  "ell</w>": 591,
  "ence</w>": 592,
  "mar": 593,
  "der</w>": 594,
  "pos": 595,
  "do</w>": 596,
  "only</w>": 597,
  "cre": 598,
  "br": 599,
  "ed.</w>": 600,
  "them</w>": 601,
  "shi": 602,
  "tim": 603,
  "ated</w>": 604,
  "ght": 605,
  "on,</w>": 606,
  "ese</w>": 607,
  "dr": 608,
  "befor": 609,
  "ure</w>": 610,
  "ou</w>": 611,
  "ess": 612,
  "ance</w>": 613,
  "with": 614,
  "little</w>": 615,
  "ers</w>": 616,
  "fir": 617,
  "vi": 618,
  "p</w>": 619,
  "them": 620,
  "oc": 621,
  "ure": 622,
  "ud": 623,
  "king</w>": 624,
  "enc": 625,
  "should</w>": 626,
  "fa": 627,
  "St": 628,
  "ous": 629,
  "And</w>": 630,
  "ey": 631,
  "k,</w>": 632,
  "now</w>": 633,
  "ind": 634,
  "ob": 635,
  "pe": 636,
  "of": 637,
  "ought</w>": 638,
  "es.</w>": 639,
  "ant</w>": 640,
  "fac": 641,
  "des": 642,
  "ant": 643,
  "ge</w>": 644,
  "again": 645,
  "car": 646,
  "mad": 647,
  "att": 648,
  "ser": 649,
  "e;</w>": 650,
  "comp": 651,
  "ving</w>": 652,
  "oll": 653,
  "ea": 654,
  "must</w>": 655,
  "age</w>": 656,
  "did</w>": 657,
  "ong": 658,
  "ine</w>": 659,
  "ning</w>": 660,
  "’</w>": 661,
  "us</w>": 662,
  "thr": 663,
  "fu": 664,
  "gl": 665,
  "can</w>": 666,
  "much</w>": 667,
  "sw": 668,
  "fl": 669,
  "it,</w>": 670,
  "before</w>": 671,
  "cor": 672,
  "self": 673,
  "these</w>": 674,
  "over</w>": 675,
  "thin": 676,
  "ill": 677,
  "then</w>": 678,
  "ig": 679,
  "ass": 680,
  "ever</w>": 681,
  "may</w>": 682,
  "down</w>": 683,
  "ned</w>": 684,
  "ting</w>": 685,
  "about</w>": 686,
  "de</w>": 687,
  "res": 688,
  "tic": 689,
  "ble</w>": 690,
  "eli": 691,
  "two</w>": 692,
  "ful": 693,
  "rem": 694,
  "ill</w>": 695,
  "ow,</w>": 696,
  "end</w>": 697,
  "never</w>": 698,
  "ever": 699,
  "time</w>": 700,
  "came</w>": 701,
  "fri": 702,
  "_</w>": 703,
  "You</w>": 704,
  "ful</w>": 705,
  "’t</w>": 706,
  "way": 707,
  "see</w>": 708,
  "cer": 709,
  "cri": 710,
  "and,</w>": 711,
  "In</w>": 712,
  "el</w>": 713,
  "int": 714,
  "app": 715,
  "ite</w>": 716,
  "ke": 717,
  "ings</w>": 718,
  "those</w>": 719,
  "being</w>": 720,
  "tain": 721,
  "fin": 722,
  "liz": 723,
  "rec": 724,
  "ub": 725,
  "s;</w>": 726,
  "great</w>": 727,
  "though</w>": 728,
  "some": 729,
  "d.</w>": 730,
  "might</w>": 731,
  "ks</w>": 732,
  "mon": 733,
  "tt": 734,
  "chi": 735,
  "inter": 736,
  "after</w>": 737,
  "use</w>": 738,
  "eng": 739,
  "==</w>": 740,
  "coun": 741,
  "19": 742,
  "read": 743,
  "A</w>": 744,
  "can": 745,
  "plac": 746,
  "him,</w>": 747,
  "first</w>": 748,
  "Eliz": 749,
  "hand": 750,
  "how</w>": 751,
  "every</w>": 752,
  "Eliza": 753,
  "where</w>": 754,
  "seem": 755,
  ")</w>": 756,
  "ect": 757,
  "made</w>": 758,
  "ust": 759,
  "ary</w>": 760,
  "ee": 761,
  "come</w>": 762,
  "thre": 763,
  "know</w>": 764,
  "ay,</w>": 765,
  "Elizabe": 766,
  "ds</w>": 767,
  "por": 768,
  "lic": 769,
  "form": 770,
  "har": 771,
  "cont": 772,
  "ack</w>": 773,
  "She</w>": 774,
  "own": 775,
  "ll": 776,
  "ing.</w>": 777,
  "cur": 778,
  "mat": 779,
  "it.</w>": 780,
  "other": 781,
  "cas": 782,
  "long</w>": 783,
  "sist": 784,
  "that": 785,
  "ef": 786,
  "te</w>": 787,
  "ish</w>": 788,
  "ca": 789,
  "ple": 790,
  "too": 791,
  "th,</w>": 792,
  "orr": 793,
  "head": 794,
  "wat": 795,
  "cap": 796,
  "off": 797,
  "arm": 798,
  "ach": 799,
  "good</w>": 800,
  "happ": 801,
  "hab": 802,
  "ards</w>": 803,
  "ra": 804,
  "mis": 805,
  "shall</w>": 806,
  "hear": 807,
  "ave</w>": 808,
  "ying</w>": 809,
  "ect</w>": 810,
  "e-": 811,
  "many</w>": 812,
  "ep</w>": 813,
  "sm": 814,
  "ER": 815,
  "Mis": 816,
  "ness</w>": 817,
  "without</w>": 818,
  "ded</w>": 819,
  "through</w>": 820,
  "t.</w>": 821,
  "ty</w>": 822,
  "vo": 823,
  "ener": 824,
  "less</w>": 825,
  "lif": 826,
  "ber": 827,
  "o,</w>": 828,
  "air": 829,
  "ons</w>": 830,
  "ist": 831,
  "led</w>": 832,
  "my": 833,
  "think</w>": 834,
  "Fr": 835,
  "Dar": 836,
  "Miss</w>": 837,
  "ily</w>": 838,
  "still</w>": 839,
  "ment": 840,
  "pris": 841,
  "on.</w>": 842,
  "yet</w>": 843,
  "over": 844,
  "tain</w>": 845,
  "even</w>": 846,
  "le,</w>": 847,
  "ic</w>": 848,
  "vis": 849,
  "beg": 850,
  "cour": 851,
  "sed</w>": 852,
  "bro": 853,
  "bre": 854,
  "les</w>": 855,
  "sub": 856,
  "way</w>": 857,
  "me,</w>": 858,
  "ue</w>": 859,
  "The": 860,
  "last</w>": 861,
  "ious</w>": 862,
  "hel": 863,
  "hap": 864,
  "while</w>": 865,
  "day": 866,
  "bu": 867,
  "ened</w>": 868,
  "ways</w>": 869,
  "ly,</w>": 870,
  "een</w>": 871,
  "ei": 872,
  "make</w>": 873,
  "HA": 874,
  "new</w>": 875,
  "inc": 876,
  "himself</w>": 877,
  "ess,</w>": 878,
  "ered</w>": 879,
  "wr": 880,
  "well</w>": 881,
  "a,</w>": 882,
  "dar": 883,
  "This</w>": 884,
  "don": 885,
  "sur": 886,
  "dist": 887,
  "ge": 888,
  "seemed</w>": 889,
  "go</w>": 890,
  "struc": 891,
  "comm": 892,
  "ment</w>": 893,
  "nat": 894,
  "ship": 895,
  "ion</w>": 896,
  "three</w>": 897,
  "PT": 898,
  "there": 899,
  "tak": 900,
  "ER</w>": 901,
  "day</w>": 902,
  "There</w>": 903,
  "iz": 904,
  "is,</w>": 905,
  "cei": 906,
  "diff": 907,
  "tor": 908,
  "What</w>": 909,
  "oul": 910,
  "under</w>": 911,
  "hop": 912,
  "youn": 913,
  "pass": 914,
  "turned</w>": 915,
  "found</w>": 916,
  "Ahab": 917,
  "jo": 918,
  "CHA": 919,
  "high": 920,
  "enti": 921,
  "same</w>": 922,
  "cha": 923,
  "CHAPT": 924,
  "sol": 925,
  "ck": 926,
  "CHAPTER</w>": 927,
  "stor": 928,
  "er.</w>": 929,
  "ding</w>": 930,
  "know": 931,
  "y;</w>": 932,
  "men</w>": 933,
  "see": 934,
  "sion</w>": 935,
  "Hol": 936,
  "sl": 937,
  "thought</w>": 938,
  "tal": 939,
  "ght,</w>": 940,
  "pri": 941,
  "aff": 942,
  "inst": 943,
  "pleas": 944,
  "let": 945,
  "ind</w>": 946,
  "nothing</w>": 947,
  "appear": 948,
  "Qu": 949,
  "ies</w>": 950,
  "ice</w>": 951,
  "saw</w>": 952,
  "ves</w>": 953,
  "ft</w>": 954,
  "sc": 955,
  "As</w>": 956,
  "take</w>": 957,
  "year": 958,
  "soon</w>": 959,
  "tun": 960,
  "owed</w>": 961,
  "ash": 962,
  "always</w>": 963,
  "gu": 964,
  "head</w>": 965,
  "ph": 966,
  "wish": 967,
  "gent": 968,
  "fam": 969,
  "against</w>": 970,
  "out": 971,
  "ack": 972,
  "cause</w>": 973,
  "They</w>": 974,
  "ath": 975,
  "hal": 976,
  "augh": 977,
  "gener": 978,
  "mer": 979,
  "rep": 980,
  "il</w>": 981,
  "tow": 982,
  "pi": 983,
  "My</w>": 984,
  "In": 985,
  "ort</w>": 986,
  "Holm": 987,
  "sen": 988,
  "under": 989,
  "looked</w>": 990,
  "ents</w>": 991,
  "went</w>": 992,
  "fre": 993,
  "won": 994,
  "reas": 995,
  "No": 996,
  "ent,</w>": 997,
  "ber</w>": 998,
  "how": 999,
  "mom": 1000,
  "ick": 1001,
  "him.</w>": 1002,
  "consi": 1003,
  "supp": 1004,
  "exp": 1005,
  "say</w>": 1006,
  "Elizabeth</w>": 1007,
  "We</w>": 1008,
  "arg": 1009,
  "bod": 1010,
  "just</w>": 1011,
  "ros": 1012,
  "20": 1013,
  "tri": 1014,
  "seen</w>": 1015,
  "any": 1016,
  "or,</w>": 1017,
  "whol": 1018,
  "Mrs.</w>": 1019,
  "arge</w>": 1020,
  "beli": 1021,
  "ther,</w>": 1022,
  "Darc": 1023,
  "mean": 1024,
  "ations</w>": 1025,
  "eas": 1026,
  "hou": 1027,
  "ten</w>": 1028,
  "ses</w>": 1029,
  "exc": 1030,
  "heard</w>": 1031,
  "ating</w>": 1032,
  "men": 1033,
  "off</w>": 1034,
  "wind": 1035,
  "room": 1036,
  "few</w>": 1037,
  "answ": 1038,
  "lad": 1039,
  "val": 1040,
  "ven</w>": 1041,
  "nec": 1042,
  "ru": 1043,
  "oub": 1044,
  "ood": 1045,
  "sin": 1046,
  "among</w>": 1047,
  "col": 1048,
  "took</w>": 1049,
  "og": 1050,
  "poin": 1051,
  "side</w>": 1052,
  "having</w>": 1053,
  "foll": 1054,
  "betw": 1055,
  "you,</w>": 1056,
  "e’s</w>": 1057,
  "pur": 1058,
  "Ben": 1059,
  "young</w>": 1060,
  "od": 1061,
  "ste": 1062,
  "ity,</w>": 1063,
  "peop": 1064,
  "spo": 1065,
  "round</w>": 1066,
  "back</w>": 1067,
  "self,</w>": 1068,
  "red</w>": 1069,
  "ently</w>": 1070,
  "also</w>": 1071,
  "get</w>": 1072,
  "run": 1073,
  "lec": 1074,
  "le.</w>": 1075,
  "eyes</w>": 1076,
  "“‘": 1077,
  "between</w>": 1078,
  "whale</w>": 1079,
  "ch,</w>": 1080,
  "far</w>": 1081,
  "h,</w>": 1082,
  "possi": 1083,
  "sha": 1084,
  "stre": 1085,
  "away</w>": 1086,
  "inde": 1087,
  "ise</w>": 1088,
  "sk": 1089,
  "strang": 1090,
  "call": 1091,
  "loc": 1092,
  "them,</w>": 1093,
  "times</w>": 1094,
  "If</w>": 1095,
  "wom": 1096,
  "ship</w>": 1097,
  "ained</w>": 1098,
  "whom</w>": 1099,
  "lear": 1100,
  "mann": 1101,
  "wal": 1102,
  "bri": 1103,
  "ation,</w>": 1104,
  "used</w>": 1105,
  "look</w>": 1106,
  "e.”</w>": 1107,
  "too</w>": 1108,
  "equ": 1109,
  "man,</w>": 1110,
  "ever,</w>": 1111,
  "fer": 1112,
  "hun": 1113,
  "lin": 1114,
  "tre": 1115,
  "hor": 1116,
  "ged</w>": 1117,
  "den": 1118,
  "bus": 1119,
  "left</w>": 1120,
  "En": 1121,
  "arr": 1122,
  "ail": 1123,
  "friend": 1124,
  "ers,</w>": 1125,
  "again</w>": 1126,
  "eg": 1127,
  "cannot</w>": 1128,
  "ept</w>": 1129,
  "emp": 1130,
  "adv": 1131,
  "both</w>": 1132,
  "ed;</w>": 1133,
  "tell</w>": 1134,
  "feel": 1135,
  "once</w>": 1136,
  "doub": 1137,
  "Whal": 1138,
  "hand</w>": 1139,
  "duc": 1140,
  "put</w>": 1141,
  "towards</w>": 1142,
  "lat": 1143,
  "stand": 1144,
  "Lorr": 1145,
  "y-": 1146,
  "es;</w>": 1147,
  "ici": 1148,
  "quite</w>": 1149,
  "When</w>": 1150,
  "tions</w>": 1151,
  "“You</w>": 1152,
  "bet": 1153,
  "here</w>": 1154,
  "“O": 1155,
  "I’": 1156,
  "bur": 1157,
  "act": 1158,
  "almost</w>": 1159,
  "ched</w>": 1160,
  "another</w>": 1161,
  "sil": 1162,
  "ical</w>": 1163,
  "owing</w>": 1164,
  "aid</w>": 1165,
  "boat": 1166,
  "fel": 1167,
  "add": 1168,
  "well": 1169,
  "inv": 1170,
  "acc": 1171,
  "ome</w>": 1172,
  "because</w>": 1173,
  "one,</w>": 1174,
  "let</w>": 1175,
  "Benne": 1176,
  "serv": 1177,
  "give</w>": 1178,
  "pow": 1179,
  "consider": 1180,
  "star": 1181,
  "sig": 1182,
  "sy": 1183,
  "light</w>": 1184,
  "Ar": 1185,
  "rel": 1186,
  "sir": 1187,
  "“Y": 1188,
  "ished</w>": 1189,
  "sid": 1190,
  "For</w>": 1191,
  "“H": 1192,
  "me.</w>": 1193,
  "Ca": 1194,
  "ho": 1195,
  "spec": 1196,
  "iness</w>": 1197,
  "dec": 1198,
  "direc": 1199,
  "hum": 1200,
  "long": 1201,
  "“W": 1202,
  "ance,</w>": 1203,
  "az": 1204,
  "part</w>": 1205,
  "ited</w>": 1206,
  "then,</w>": 1207,
  "whole</w>": 1208,
  "Jan": 1209,
  "mak": 1210,
  "reg": 1211,
  "Mon": 1212,
  "each</w>": 1213,
  "heav": 1214,
  "cried</w>": 1215,
  "),</w>": 1216,
  "sun": 1217,
  "ion": 1218,
  "sum": 1219,
  "ended</w>": 1220,
  "ingle": 1221,
  "te": 1222,
  "son": 1223,
  "whe": 1224,
  "we": 1225,
  "war": 1226,
  "something</w>": 1227,
  "ubb": 1228,
  "vers": 1229,
  "pec": 1230,
  "ows</w>": 1231,
  "quest": 1232,
  "fur": 1233,
  "ten": 1234,
  "ing-": 1235,
  "toge": 1236,
  "dear</w>": 1237,
  "chang": 1238,
  "was": 1239,
  "ye</w>": 1240,
  "mod": 1241,
  "acqu": 1242,
  "ors</w>": 1243,
  "face</w>": 1244,
  "x</w>": 1245,
  "bar": 1246,
  "dre": 1247,
  "nam": 1248,
  "that,</w>": 1249,
  "ter,</w>": 1250,
  "med": 1251,
  "cir": 1252,
  "though": 1253,
  "ry</w>": 1254,
  "find</w>": 1255,
  "peri": 1256,
  "gentle": 1257,
  "Bingle": 1258,
  "looking</w>": 1259,
  "ried</w>": 1260,
  "her,</w>": 1261,
  "ai": 1262,
  "Def": 1263,
  "life</w>": 1264,
  "ham": 1265,
  "“It</w>": 1266,
  "His</w>": 1267,
  "'s</w>": 1268,
  "Car": 1269,
  "“Th": 1270,
  "sail": 1271,
  "called</w>": 1272,
  "rather</w>": 1273,
  "body</w>": 1274,
  "night</w>": 1275,
  "work</w>": 1276,
  "known</w>": 1277,
  "fortun": 1278,
  "uring</w>": 1279,
  "son</w>": 1280,
  "char": 1281,
  "Mar": 1282,
  "sle": 1283,
  "contin": 1284,
  "cover": 1285,
  "ously</w>": 1286,
  "ready</w>": 1287,
  "recei": 1288,
  "mast": 1289,
  "ound": 1290,
  "place</w>": 1291,
  "ling</w>": 1292,
  "ition</w>": 1293,
  "ben": 1294,
  "great": 1295,
  "don’t</w>": 1296,
  "ence,</w>": 1297,
  "arly</w>": 1298,
  "ular</w>": 1299,
  "lor": 1300,
  "dro": 1301,
  "differ": 1302,
  "nor</w>": 1303,
  "father</w>": 1304,
  "an,</w>": 1305,
  "prin": 1306,
  "ve": 1307,
  "poor</w>": 1308,
  "now": 1309,
  "ass</w>": 1310,
  "half</w>": 1311,
  "myself</w>": 1312,
  "does</w>": 1313,
  "spir": 1314,
  "right</w>": 1315,
  "ew": 1316,
  "if": 1317,
  "circ": 1318,
  "expres": 1319,
  "mind</w>": 1320,
  "felt</w>": 1321,
  "unti": 1322,
  "Luc": 1323,
  "Ali": 1324,
  "ory</w>": 1325,
  "Cap": 1326,
  "ank</w>": 1327,
  "din": 1328,
  "ery</w>": 1329,
  "tion,</w>": 1330,
  "stri": 1331,
  "st,</w>": 1332,
  "time,</w>": 1333,
  "whose</w>": 1334,
  "often</w>": 1335,
  "gg": 1336,
  "ingly</w>": 1337,
  "conf": 1338,
  "knew</w>": 1339,
  "better</w>": 1340,
  "ably</w>": 1341,
  "suff": 1342,
  "At</w>": 1343,
  "turn</w>": 1344,
  "ur</w>": 1345,
  "du": 1346,
  "jec": 1347,
  "pap": 1348,
  "se.</w>": 1349,
  "ation.</w>": 1350,
  "people</w>": 1351,
  "until</w>": 1352,
  "Engl": 1353,
  "led": 1354,
  "all,</w>": 1355,
  "going</w>": 1356,
  "tru": 1357,
  "chil": 1358,
  "“The</w>": 1359,
  "et,</w>": 1360,
  "small</w>": 1361,
  "re</w>": 1362,
  "od</w>": 1363,
  "al,</w>": 1364,
  "age,</w>": 1365,
  "ening</w>": 1366,
  "land": 1367,
  "k.</w>": 1368,
  "however,</w>": 1369,
  "wa": 1370,
  "hur": 1371,
  "prom": 1372,
  "suc": 1373,
  "pa": 1374,
  "got</w>": 1375,
  "perhap": 1376,
  "]</w>": 1377,
  "ering</w>": 1378,
  "ined</w>": 1379,
  "ide": 1380,
  "daugh": 1381,
  "ve,</w>": 1382,
  "deli": 1383,
  "stood</w>": 1384,
  "hon": 1385,
  "tly</w>": 1386,
  "own,</w>": 1387,
  "qui": 1388,
  "se,</w>": 1389,
  "bel": 1390,
  ".’</w>": 1391,
  "Doc": 1392,
  "ures</w>": 1393,
  "ign": 1394,
  "till</w>": 1395,
  "bor": 1396,
  "set</w>": 1397,
  "natur": 1398,
  "en.</w>": 1399,
  "brought</w>": 1400,
  "vel": 1401,
  "ement</w>": 1402,
  "certain": 1403,
  "“N": 1404,
  "sat</w>": 1405,
  "olog": 1406,
  "boo": 1407,
  "spe": 1408,
  "began</w>": 1409,
  "ped</w>": 1410,
  "“S": 1411,
  "“And</w>": 1412,
  "years</w>": 1413,
  "cal": 1414,
  "beh": 1415,
  "wish</w>": 1416,
  "present</w>": 1417,
  "ess.</w>": 1418,
  "draw": 1419,
  "wif": 1420,
  "mil": 1421,
  "eve</w>": 1422,
  "countr": 1423,
  "taken</w>": 1424,
  "Stubb": 1425,
  "stand</w>": 1426,
  "ustr": 1427,
  "creat": 1428,
  "To</w>": 1429,
  "within</w>": 1430,
  "continu": 1431,
  "passed</w>": 1432,
  "ative</w>": 1433,
  "Al": 1434,
  "ast,</w>": 1435,
  "sud": 1436,
  "one": 1437,
  "in,</w>": 1438,
  "I.</w>": 1439,
  "ly.</w>": 1440,
  "enough</w>": 1441,
  "hope</w>": 1442,
  "partic": 1443,
  "whether</w>": 1444,
  "hard": 1445,
  "Whi": 1446,
  "den</w>": 1447,
  "every": 1448,
  "day,</w>": 1449,
  "mur": 1450,
  "resp": 1451,
  "ace</w>": 1452,
  "ell,</w>": 1453,
  "s.”</w>": 1454,
  "ross</w>": 1455,
  "dri": 1456,
  "them.</w>": 1457,
  "Char": 1458,
  "id,</w>": 1459,
  "Quee": 1460,
  "Queequ": 1461,
  "ters</w>": 1462,
  "vid": 1463,
  "hour": 1464,
  "say": 1465,
  "again,</w>": 1466,
  "room</w>": 1467,
  "hands</w>": 1468,
  "ching</w>": 1469,
  "therefor": 1470,
  "things</w>": 1471,
  "night": 1472,
  "abo": 1473,
  "at,</w>": 1474,
  "thou</w>": 1475,
  "harpo": 1476,
  "conv": 1477,
  "cent": 1478,
  "cho": 1479,
  "a.</w>": 1480,
  "ward</w>": 1481,
  "18": 1482,
  "remar": 1483,
  "compan": 1484,
  "so,</w>": 1485,
  "Ahab</w>": 1486,
  "ture</w>": 1487,
  "00": 1488,
  "ref": 1489,
  "thy</w>": 1490,
  "prison": 1491,
  "prob": 1492,
  "eff": 1493,
  "thing": 1494,
  "y’s</w>": 1495,
  "present": 1496,
  "op</w>": 1497,
  "became</w>": 1498,
  "tran": 1499,
  "ject</w>": 1500,
  "ist</w>": 1501,
  "minut": 1502,
  "nex": 1503,
  "ar,</w>": 1504,
  "sever": 1505,
  "tic</w>": 1506,
  "uck": 1507,
  "light": 1508,
  "ceed": 1509,
  "near</w>": 1510,
  "white</w>": 1511,
  "there,</w>": 1512,
  "Star": 1513,
  "to-": 1514,
  "lied</w>": 1515,
  "either</w>": 1516,
  "h</w>": 1517,
  "told</w>": 1518,
  "plan": 1519,
  "n’t</w>": 1520,
  "out,</w>": 1521,
  "gave</w>": 1522,
  "list": 1523,
  "mp": 1524,
  "Man": 1525,
  "shar": 1526,
  "stat": 1527,
  "not": 1528,
  "sing": 1529,
  "“D": 1530,
  "ity.</w>": 1531,
  "imp": 1532,
  "cle": 1533,
  "Alice</w>": 1534,
  "after": 1535,
  "ember</w>": 1536,
  "“A": 1537,
  "fell": 1538,
  "cau": 1539,
  "ised</w>": 1540,
  "nei": 1541,
  "said,</w>": 1542,
  "house</w>": 1543,
  "large</w>": 1544,
  "four</w>": 1545,
  "ster": 1546,
  "Par": 1547,
  "bas": 1548,
  "charac": 1549,
  "medi": 1550,
  "ond": 1551,
  "done</w>": 1552,
  "sul": 1553,
  "ask</w>": 1554,
  "ari": 1555,
  "pic": 1556,
  "here": 1557,
  "eak</w>": 1558,
  "worl": 1559,
  "herself</w>": 1560,
  "anything</w>": 1561,
  "now,</w>": 1562,
  "held</w>": 1563,
  "arri": 1564,
  "Lad": 1565,
  "affec": 1566,
  "fully</w>": 1567,
  "able,</w>": 1568,
  "name</w>": 1569,
  "turn": 1570,
  "necess": 1571,
  "ken</w>": 1572,
  "keep</w>": 1573,
  "Con": 1574,
  "ith</w>": 1575,
  "sho": 1576,
  "y.”</w>": 1577,
  "thus</w>": 1578,
  "sing</w>": 1579,
  "ext": 1580,
  "On</w>": 1581,
  "sion": 1582,
  "oy": 1583,
  "will": 1584,
  "door</w>": 1585,
  "bour": 1586,
  "icul": 1587,
  "ew</w>": 1588,
  "itud": 1589,
  "angu": 1590,
  "termin": 1591,
  "th.</w>": 1592,
  "win": 1593,
  "Darcy</w>": 1594,
  "accoun": 1595,
  "sort</w>": 1596,
  "port": 1597,
  "ure,</w>": 1598,
  "tern": 1599,
  "appro": 1600,
  "soci": 1601,
  "concer": 1602,
  "play": 1603,
  "avour": 1604,
  "since</w>": 1605,
  "low": 1606,
  "really</w>": 1607,
  "tion.</w>": 1608,
  "clud": 1609,
  "hold</w>": 1610,
  "abil": 1611,
  "ali": 1612,
  "tor</w>": 1613,
  "bed</w>": 1614,
  "ins</w>": 1615,
  "ne</w>": 1616,
  "hear</w>": 1617,
  "atten": 1618,
  "foo": 1619,
  "quir": 1620,
  "sci": 1621,
  "new": 1622,
  "father": 1623,
  "pat": 1624,
  "ear</w>": 1625,
  "certain</w>": 1626,
  "sat": 1627,
  "case</w>": 1628,
  "per</w>": 1629,
  "us,</w>": 1630,
  "asked</w>": 1631,
  "circum": 1632,
  "during</w>": 1633,
  "ances</w>": 1634,
  "clo": 1635,
  "thous": 1636,
  "coming</w>": 1637,
  "“What</w>": 1638,
  "pal": 1639,
  "tou": 1640,
  "gn": 1641,
  "vely</w>": 1642,
  "ma": 1643,
  "=</w>": 1644,
  "standing</w>": 1645,
  "ublic": 1646,
  "themsel": 1647,
  "shor": 1648,
  "gir": 1649,
  "“Wh": 1650,
  "amp": 1651,
  "dest": 1652,
  "ied</w>": 1653,
  "fic": 1654,
  "Ch": 1655,
  "adm": 1656,
  "ets</w>": 1657,
  "step": 1658,
  "lik": 1659,
  "lip": 1660,
  "leave</w>": 1661,
  "ent.</w>": 1662,
  "ached</w>": 1663,
  "lay</w>": 1664,
  "moment</w>": 1665,
  "it;</w>": 1666,
  "secon": 1667,
  "full</w>": 1668,
  "read</w>": 1669,
  "mou": 1670,
  "ef</w>": 1671,
  "ual</w>": 1672,
  "obser": 1673,
  "Ex": 1674,
  "night,</w>": 1675,
  "believe</w>": 1676,
  "ath</w>": 1677,
  "high</w>": 1678,
  "hu": 1679,
  "sure</w>": 1680,
  "quar": 1681,
  "leng": 1682,
  "Com": 1683,
  "imag": 1684,
  "ately</w>": 1685,
  "ook</w>": 1686,
  "fied</w>": 1687,
  "contr": 1688,
  "usu": 1689,
  "Coll": 1690,
  "===</w>": 1691,
  "ach</w>": 1692,
  "ris": 1693,
  "next</w>": 1694,
  "flu": 1695,
  "side": 1696,
  "Starb": 1697,
  "I,</w>": 1698,
  "surpris": 1699,
  "her.</w>": 1700,
  "leg": 1701,
  "Bu": 1702,
  "world</w>": 1703,
  "So</w>": 1704,
  "“But</w>": 1705,
  "morn": 1706,
  "business</w>": 1707,
  "men,</w>": 1708,
  "occas": 1709,
  "hus": 1710,
  "Holmes</w>": 1711,
  "ade</w>": 1712,
  "del": 1713,
  "er’s</w>": 1714,
  "Wick": 1715,
  "els</w>": 1716,
  "pul": 1717,
  "given</w>": 1718,
  "self.</w>": 1719,
  "course</w>": 1720,
  "air</w>": 1721,
  "returned</w>": 1722,
  "How</w>": 1723,
  "dered</w>": 1724,
  "tered</w>": 1725,
  "friend</w>": 1726,
  "ric": 1727,
  "speak": 1728,
  "hand,</w>": 1729,
  "pit": 1730,
  "then": 1731,
  "hom": 1732,
  "reli": 1733,
  "ates</w>": 1734,
  "fiel": 1735,
  "hol": 1736,
  "resol": 1737,
  "mid": 1738,
  "prof": 1739,
  "husb": 1740,
  "err": 1741,
  "iting</w>": 1742,
  "knowled": 1743,
  "part": 1744,
  "one.</w>": 1745,
  "pain": 1746,
  "this": 1747,
  "sea</w>": 1748,
  "love</w>": 1749,
  "Ly": 1750,
  "wher": 1751,
  "land</w>": 1752,
  "difficul": 1753,
  "across</w>": 1754,
  "thir": 1755,
  "sometimes</w>": 1756,
  "For": 1757,
  "That</w>": 1758,
  "ter.</w>": 1759,
  "sett": 1760,
  "satis": 1761,
  "feel</w>": 1762,
  "e!</w>": 1763,
  "say,</w>": 1764,
  "re,</w>": 1765,
  "oh": 1766,
  "spr": 1767,
  "word</w>": 1768,
  "ending</w>": 1769,
  "sive</w>": 1770,
  "tec": 1771,
  "forc": 1772,
  "E</w>": 1773,
  "words</w>": 1774,
  "room,</w>": 1775,
  "kind": 1776,
  "along</w>": 1777,
  "num": 1778,
  "sh</w>": 1779,
  "Captain</w>": 1780,
  "why</w>": 1781,
  "best</w>": 1782,
  "this,</w>": 1783,
  "sed,</w>": 1784,
  "ren": 1785,
  "lock</w>": 1786,
  "several</w>": 1787,
  "itted</w>": 1788,
  "ick</w>": 1789,
  "circumst": 1790,
  "\"</w>": 1791,
  "pu": 1792,
  "gri": 1793,
  "Le": 1794,
  "aged</w>": 1795,
  "was,</w>": 1796,
  "days</w>": 1797,
  "ities</w>": 1798,
  "dang": 1799,
  "already</w>": 1800,
  "clos": 1801,
  "matter</w>": 1802,
  "e,”</w>": 1803,
  "ice,</w>": 1804,
  "strange</w>": 1805,
  "marri": 1806,
  "lim": 1807,
  "tive</w>": 1808,
  "ank": 1809,
  "human</w>": 1810,
  "ward": 1811,
  "0</w>": 1812,
  "rely</w>": 1813,
  "way,</w>": 1814,
  "hardly</w>": 1815,
  "scen": 1816,
  "als</w>": 1817,
  "itu": 1818,
  "empl": 1819,
  "but,</w>": 1820,
  "esid": 1821,
  "least</w>": 1822,
  "reason</w>": 1823,
  "fear": 1824,
  "Per": 1825,
  "antly</w>": 1826,
  "open</w>": 1827,
  "aving</w>": 1828,
  "sic": 1829,
  "unc": 1830,
  "s!</w>": 1831,
  "ble": 1832,
  "n,</w>": 1833,
  "gone</w>": 1834,
  "ance.</w>": 1835,
  "speak</w>": 1836,
  "whale,</w>": 1837,
  "Pequ": 1838,
  "ial</w>": 1839,
  "ence.</w>": 1840,
  "vent": 1841,
  "d;</w>": 1842,
  "kind</w>": 1843,
  "you.</w>": 1844,
  "rest": 1845,
  "trac": 1846,
  "vol": 1847,
  "interest": 1848,
  "plain": 1849,
  "wards</w>": 1850,
  "taking</w>": 1851,
  "exam": 1852,
  "perhaps</w>": 1853,
  "laugh": 1854,
  "possible</w>": 1855,
  "miser": 1856,
  "secre": 1857,
  "making</w>": 1858,
  "tu": 1859,
  "wise</w>": 1860,
  "cup": 1861,
  "here,</w>": 1862,
  ",’</w>": 1863,
  "manner</w>": 1864,
  "heart</w>": 1865,
  "Lydi": 1866,
  "Bennet</w>": 1867,
  "S</w>": 1868,
  "elli": 1869,
  "ian</w>": 1870,
  "ad,</w>": 1871,
  "received</w>": 1872,
  "thousand</w>": 1873,
  "flo": 1874,
  "ences</w>": 1875,
  "uli": 1876,
  "ond</w>": 1877,
  "head,</w>": 1878,
  "call</w>": 1879,
  "desir": 1880,
  "cru": 1881,
  "Ill": 1882,
  "He": 1883,
  "Gr": 1884,
  "sent</w>": 1885,
  "covered</w>": 1886,
  "wonder": 1887,
  "fort": 1888,
  "what": 1889,
  "believ": 1890,
  "he,</w>": 1891,
  "live</w>": 1892,
  "With</w>": 1893,
  "eless</w>": 1894,
  "help</w>": 1895,
  "pol": 1896,
  "point</w>": 1897,
  "che": 1898,
  "ress</w>": 1899,
  "or.</w>": 1900,
  "los": 1901,
  "pped</w>": 1902,
  "behind</w>": 1903,
  "carri": 1904,
  "sec": 1905,
  "appeared</w>": 1906,
  "succ": 1907,
  "et.</w>": 1908,
  "But,</w>": 1909,
  "strong</w>": 1910,
  "ate,</w>": 1911,
  "Not</w>": 1912,
  "him;</w>": 1913,
  "poss": 1914,
  "fig": 1915,
  "family</w>": 1916,
  "ustration": 1917,
  "15": 1918,
  "ner</w>": 1919,
  "shed</w>": 1920,
  "ound,</w>": 1921,
  "pursu": 1922,
  "ask": 1923,
  "Wil": 1924,
  "susp": 1925,
  "black</w>": 1926,
  "Elizabeth,</w>": 1927,
  "general</w>": 1928,
  "4</w>": 1929,
  "ness,</w>": 1930,
  "jud": 1931,
  "D</w>": 1932,
  "means</w>": 1933,
  "turning</w>": 1934,
  "morning</w>": 1935,
  "which,</w>": 1936,
  "moun": 1937,
  "remain": 1938,
  "mul": 1939,
  "hard</w>": 1940,
  "rest</w>": 1941,
  "ure.</w>": 1942,
  "Illustration": 1943,
  "dark</w>": 1944,
  "fanc": 1945,
  "want</w>": 1946,
  "aw</w>": 1947,
  "Manet": 1948,
  "reason": 1949,
  "ured</w>": 1950,
  "pas": 1951,
  "agre": 1952,
  "ot": 1953,
  "[Illustration": 1954,
  "ember": 1955,
  "ye,</w>": 1956,
  "away": 1957,
  "lost</w>": 1958,
  "perf": 1959,
  "happy</w>": 1960,
  "Lady</w>": 1961,
  "ner": 1962,
  "formed</w>": 1963,
  "close</w>": 1964,
  "bly</w>": 1965,
  "aun": 1966,
  ").</w>": 1967,
  "five</w>": 1968,
  "ject": 1969,
  "wee": 1970,
  "ing;</w>": 1971,
  "Flor": 1972,
  "dep": 1973,
  "Pr": 1974,
  "Col": 1975,
  "ence": 1976,
  "back": 1977,
  "sudden": 1978,
  "kept</w>": 1979,
  "ition": 1980,
  "order</w>": 1981,
  "form</w>": 1982,
  "itting</w>": 1983,
  "up,</w>": 1984,
  "repe": 1985,
  "wil": 1986,
  "boat</w>": 1987,
  "end,</w>": 1988,
  "vic": 1989,
  "break": 1990,
  "idea</w>": 1991,
  "illed</w>": 1992,
  "hous": 1993,
  "Fren": 1994,
  "_.</w>": 1995,
  "Lorry</w>": 1996,
  "fo": 1997,
  "ks,</w>": 1998,
  "second</w>": 1999,
  "sight</w>": 2000,
  "died</w>": 2001,
  "ous,</w>": 2002,
  "fter</w>": 2003,
  "Cart": 2004,
  "seeing</w>": 2005,
  "By</w>": 2006,
  "-b": 2007,
  "Her</w>": 2008,
  "vil": 2009,
  "sou": 2010,
  "“My</w>": 2011,
  "Jane</w>": 2012,
  "comple": 2013,
  "ute</w>": 2014,
  "fron": 2015,
  "xed</w>": 2016,
  "short</w>": 2017,
  "deep": 2018,
  "ug": 2019,
  "all.</w>": 2020,
  "Then</w>": 2021,
  "above</w>": 2022,
  "import": 2023,
  "natural</w>": 2024,
  "Cl": 2025,
  "iled</w>": 2026,
  "b</w>": 2027,
  "stair": 2028,
  "opin": 2029,
  "therefore,</w>": 2030,
  "dom": 2031,
  "different</w>": 2032,
  "become</w>": 2033,
  "ings,</w>": 2034,
  "Ge": 2035,
  "Ab": 2036,
  "cros": 2037,
  "ers.</w>": 2038,
  "led,</w>": 2039,
  "man.</w>": 2040,
  "vill": 2041,
  "def": 2042,
  "comes</w>": 2043,
  "inf": 2044,
  "dred</w>": 2045,
  "who,</w>": 2046,
  "Doctor</w>": 2047,
  "Str": 2048,
  "line</w>": 2049,
  "thor": 2050,
  "ven": 2051,
  "ant,</w>": 2052,
  "fast": 2053,
  "ches</w>": 2054,
  "feet</w>": 2055,
  "seems</w>": 2056,
  "seas": 2057,
  "immedi": 2058,
  "ood,</w>": 2059,
  "Now,</w>": 2060,
  "Bingley</w>": 2061,
  ",--": 2062,
  "particul": 2063,
  "anced</w>": 2064,
  "mag": 2065,
  "state</w>": 2066,
  "mist": 2067,
  "Tur": 2068,
  "ts,</w>": 2069,
  "down": 2070,
  "rap": 2071,
  "fear</w>": 2072,
  "Lond": 2073,
  "thing,</w>": 2074,
  "s—": 2075,
  "sea": 2076,
  "cab": 2077,
  "Sper": 2078,
  "connec": 2079,
  "ves": 2080,
  "Be": 2081,
  "ans</w>": 2082,
  "Let</w>": 2083,
  "other,</w>": 2084,
  "certainly</w>": 2085,
  "“Oh,</w>": 2086,
  "Defarg": 2087,
  "Darn": 2088,
  "show</w>": 2089,
  "d-": 2090,
  "ages</w>": 2091,
  "descri": 2092,
  "did": 2093,
  "ret": 2094,
  "shoul": 2095,
  "bir": 2096,
  "?’</w>": 2097,
  "act</w>": 2098,
  "together</w>": 2099,
  "Lor": 2100,
  "!—": 2101,
  "doubt</w>": 2102,
  "sequ": 2103,
  "ational</w>": 2104,
  "stop": 2105,
  "langu": 2106,
  "val</w>": 2107,
  "All</w>": 2108,
  "*</w>": 2109,
  "Mo": 2110,
  "Br": 2111,
  "me;</w>": 2112,
  "ack,</w>": 2113,
  "suddenly</w>": 2114,
  "After</w>": 2115,
  "bit": 2116,
  "swe": 2117,
  "pen": 2118,
  "scar": 2119,
  "home</w>": 2120,
  "try</w>": 2121,
  "y,”</w>": 2122,
  "good": 2123,
  "death</w>": 2124,
  "Gre": 2125,
  "acquain": 2126,
  "Starbuc": 2127,
  "rop": 2128,
  "ann": 2129,
  "incre": 2130,
  "again.</w>": 2131,
  "seem</w>": 2132,
  "remained</w>": 2133,
  "others</w>": 2134,
  "arm</w>": 2135,
  "woman</w>": 2136,
  "vir": 2137,
  "ounded</w>": 2138,
  "able.</w>": 2139,
  "Li": 2140,
  "inquir": 2141,
  "convers": 2142,
  "gover": 2143,
  "voice</w>": 2144,
  "I’ll</w>": 2145,
  "sper": 2146,
  "power</w>": 2147,
  "letter</w>": 2148,
  "occup": 2149,
  "admir": 2150,
  "Queequeg": 2151,
  "histor": 2152,
  "remark": 2153,
  "glo": 2154,
  "common</w>": 2155,
  "ine,</w>": 2156,
  "sister</w>": 2157,
  "struck</w>": 2158,
  "ende": 2159,
  "Geor": 2160,
  "ms</w>": 2161,
  "it’s</w>": 2162,
  "anx": 2163,
  "fore": 2164,
  "Castruc": 2165,
  "Castrucci": 2166,
  "voy": 2167,
  "Mad": 2168,
  "pose</w>": 2169,
  "ants</w>": 2170,
  "walked</w>": 2171,
  "side,</w>": 2172,
  "er;</w>": 2173,
  "laid</w>": 2174,
  "“G": 2175,
  "Cather": 2176,
  "Whale</w>": 2177,
  "dat": 2178,
  "ality</w>": 2179,
  "gh</w>": 2180,
  "ty": 2181,
  "crow": 2182,
  "busin": 2183,
  "moved</w>": 2184,
  "ney</w>": 2185,
  "Sperm</w>": 2186,
  "eg</w>": 2187,
  "199": 2188,
  "mem": 2189,
  "itude</w>": 2190,
  "Sp": 2191,
  "ion,</w>": 2192,
  "abl": 2193,
  "tra": 2194,
  "hundred</w>": 2195,
  "“Yes,</w>": 2196,
  "too,</w>": 2197,
  "sie": 2198,
  "famil": 2199,
  "peculi": 2200,
  "2</w>": 2201,
  "determin": 2202,
  "Indi": 2203,
  "decl": 2204,
  "e?”</w>": 2205,
  "smi": 2206,
  "ased</w>": 2207,
  "Sy": 2208,
  "age.</w>": 2209,
  "followed</w>": 2210,
  "reflec": 2211,
  "trav": 2212,
  "Joh": 2213,
  "whales</w>": 2214,
  "inten": 2215,
  "3</w>": 2216,
  "prec": 2217,
  "preh": 2218,
  "m,</w>": 2219,
  "bul": 2220,
  "One</w>": 2221,
  "ili": 2222,
  "Alic": 2223,
  "t;</w>": 2224,
  "change</w>": 2225,
  "it.”</w>": 2226,
  "himself,</w>": 2227,
  "offic": 2228,
  "St.</w>": 2229,
  "posed</w>": 2230,
  "roll": 2231,
  "var": 2232,
  "larg": 2233,
  "aim": 2234,
  "sign": 2235,
  "slow": 2236,
  "fall": 2237,
  "“and</w>": 2238,
  "obli": 2239,
  "Luci": 2240,
  "achi": 2241,
  "ds,</w>": 2242,
  "narr": 2243,
  "confid": 2244,
  "get": 2245,
  "elled</w>": 2246,
  "rist": 2247,
  "favour": 2248,
  "t’s</w>": 2249,
  "ink": 2250,
  "prince</w>": 2251,
  "shad": 2252,
  "harpoone": 2253,
  "Madame</w>": 2254,
  "using</w>": 2255,
  "ually</w>": 2256,
  "main": 2257,
  "aut": 2258,
  "degre": 2259,
  "ected</w>": 2260,
  "bey": 2261,
  "ve.</w>": 2262,
  "viol": 2263,
  "ty,</w>": 2264,
  "ment,</w>": 2265,
  "childr": 2266,
  "opened</w>": 2267,
  "ke,</w>": 2268,
  "s:</w>": 2269,
  "deep</w>": 2270,
  "care": 2271,
  "point": 2272,
  "inging</w>": 2273,
  "rup": 2274,
  "es.”</w>": 2275,
  "right": 2276,
  "in.</w>": 2277,
  "themselves</w>": 2278,
  "horr": 2279,
  "ap</w>": 2280,
  "ordin": 2281,
  "buil": 2282,
  "ight</w>": 2283,
  "squ": 2284,
  "Is</w>": 2285,
  "ety</w>": 2286,
  "Rom": 2287,
  "suppos": 2288,
  "Willi": 2289,
  "hat": 2290,
  "bear": 2291,
  "smo": 2292,
  "wife</w>": 2293,
  "ame": 2294,
  "From</w>": 2295,
  "uni": 2296,
  "sli": 2297,
  "Un": 2298,
  "IN": 2299,
  "am,</w>": 2300,
  "fing": 2301,
  "dres": 2302,
  "“He</w>": 2303,
  "“that</w>": 2304,
  "dread": 2305,
  "Defarge</w>": 2306,
  "less": 2307,
  "det": 2308,
  "meas": 2309,
  "Se": 2310,
  "bott": 2311,
  "nature</w>": 2312,
  "princi": 2313,
  "ens</w>": 2314,
  "ties</w>": 2315,
  "trou": 2316,
  "_,</w>": 2317,
  "“Well,</w>": 2318,
  "h!</w>": 2319,
  "sorr": 2320,
  "said": 2321,
  "hour</w>": 2322,
  "father,</w>": 2323,
  "carried</w>": 2324,
  "even": 2325,
  "Holmes,</w>": 2326,
  "ized</w>": 2327,
  "i</w>": 2328,
  "sem": 2329,
  "law": 2330,
  "grat": 2331,
  "son,</w>": 2332,
  "e?</w>": 2333,
  "dead</w>": 2334,
  "roy": 2335,
  "King</w>": 2336,
  "understand</w>": 2337,
  "expl": 2338,
  "ancing</w>": 2339,
  "ch.</w>": 2340,
  "clear": 2341,
  "just": 2342,
  "wild</w>": 2343,
  "eye</w>": 2344,
  "sea,</w>": 2345,
  "person</w>": 2346,
  "bow": 2347,
  "feelings</w>": 2348,
  "girl": 2349,
  "lady</w>": 2350,
  "return</w>": 2351,
  "consci": 2352,
  "These</w>": 2353,
  "evid": 2354,
  "ping</w>": 2355,
  "public": 2356,
  "sion,</w>": 2357,
  "ble,</w>": 2358,
  "ster</w>": 2359,
  "entirely</w>": 2360,
  "dear": 2361,
  "fif": 2362,
  "fish": 2363,
  "eag": 2364,
  "uch</w>": 2365,
  "Her": 2366,
  "No</w>": 2367,
  "wit": 2368,
  "“T": 2369,
  "half": 2370,
  "living</w>": 2371,
  "ardin": 2372,
  "enter": 2373,
  "Nant": 2374,
  "mother</w>": 2375,
  "Crun": 2376,
  "ents,</w>": 2377,
  "orig": 2378,
  "Fl": 2379,
  "itself</w>": 2380,
  "Du": 2381,
  "itiz": 2382,
  "ak</w>": 2383,
  "everything</w>": 2384,
  "replied</w>": 2385,
  "drew</w>": 2386,
  "face,</w>": 2387,
  "meric": 2388,
  "compar": 2389,
  "ading</w>": 2390,
  "ustom": 2391,
  "around</w>": 2392,
  "sound</w>": 2393,
  "e—": 2394,
  "bled</w>": 2395,
  "jour": 2396,
  "water</w>": 2397,
  "quick": 2398,
  "life": 2399,
  "length</w>": 2400,
  "deser": 2401,
  "although</w>": 2402,
  "Americ": 2403,
  "Crunch": 2404,
  "feat": 2405,
  "impro": 2406,
  "former</w>": 2407,
  "ghts</w>": 2408,
  "anti": 2409,
  "intro": 2410,
  "cul": 2411,
  "dg": 2412,
  "fine</w>": 2413,
  "near": 2414,
  "Oh,</w>": 2415,
  "fire": 2416,
  "man’s</w>": 2417,
  "mer</w>": 2418,
  "entered</w>": 2419,
  "isher": 2420,
  "sun</w>": 2421,
  "meth": 2422,
  "ising</w>": 2423,
  "resul": 2424,
  "Ad": 2425,
  "ally,</w>": 2426,
  "6</w>": 2427,
  "observ": 2428,
  "der,</w>": 2429,
  "al.</w>": 2430,
  "essed</w>": 2431,
  "oud</w>": 2432,
  "sleep": 2433,
  "eyes,</w>": 2434,
  "terri": 2435,
  "indeed,</w>": 2436,
  "neigh": 2437,
  "able": 2438,
  "ions</w>": 2439,
  "necessary</w>": 2440,
  "stud": 2441,
  "table</w>": 2442,
  "indi": 2443,
  "pop": 2444,
  "conduc": 2445,
  "II.</w>": 2446,
  "beau": 2447,
  "house,</w>": 2448,
  "met</w>": 2449,
  "stead": 2450,
  "ship,</w>": 2451,
  "whale-": 2452,
  "crew": 2453,
  "occur": 2454,
  "object</w>": 2455,
  "Gu": 2456,
  "ially</w>": 2457,
  "el,</w>": 2458,
  "account</w>": 2459,
  "Nor": 2460,
  "last": 2461,
  "TH": 2462,
  "White</w>": 2463,
  "road": 2464,
  "low</w>": 2465,
  "portun": 2466,
  "sions</w>": 2467,
  "time.</w>": 2468,
  "assist": 2469,
  "provid": 2470,
  "advant": 2471,
  "art</w>": 2472,
  "down,</w>": 2473,
  "super": 2474,
  "month": 2475,
  "experi": 2476,
  "ard,</w>": 2477,
  "twent": 2478,
  "placed</w>": 2479,
  "yourself</w>": 2480,
  "y!</w>": 2481,
  "so.</w>": 2482,
  "eath</w>": 2483,
  "tained</w>": 2484,
  "true</w>": 2485,
  "except</w>": 2486,
  "ame,</w>": 2487,
  "anim": 2488,
  "daughter</w>": 2489,
  "sn": 2490,
  "arms</w>": 2491,
  "day.</w>": 2492,
  ",—": 2493,
  "Lorry,</w>": 2494,
  "Tit": 2495,
  "hast": 2496,
  "various</w>": 2497,
  "N</w>": 2498,
  "cat": 2499,
  "ference</w>": 2500,
  "strong": 2501,
  "commun": 2502,
  "excl": 2503,
  "enough": 2504,
  "strai": 2505,
  "aded</w>": 2506,
  "hang": 2507,
  "gol": 2508,
  "spoke</w>": 2509,
  "besid": 2510,
  "princ": 2511,
  "s’</w>": 2512,
  "gentleman</w>": 2513,
  "198": 2514,
  "whalem": 2515,
  "ingu": 2516,
  "sear": 2517,
  "person": 2518,
  "percei": 2519,
  "use": 2520,
  "jur": 2521,
  "scr": 2522,
  "else</w>": 2523,
  "“C": 2524,
  "edly</w>": 2525,
  "death": 2526,
  "usual</w>": 2527,
  "noc": 2528,
  "wer": 2529,
  "appe": 2530,
  "Franc": 2531,
  "afterwards</w>": 2532,
  "opportun": 2533,
  "answer</w>": 2534,
  "includ": 2535,
  "cond": 2536,
  "ations,</w>": 2537,
  "ign</w>": 2538,
  "stu": 2539,
  "ghted</w>": 2540,
  "observed</w>": 2541,
  "ology</w>": 2542,
  "utter": 2543,
  "sor": 2544,
  "lab": 2545,
  "country</w>": 2546,
  "terr": 2547,
  "ang</w>": 2548,
  "mone": 2549,
  "Wat": 2550,
  "eight</w>": 2551,
  "objec": 2552,
  "sch": 2553,
  "position</w>": 2554,
  "further</w>": 2555,
  "real</w>": 2556,
  "scor": 2557,
  "eness</w>": 2558,
  "hours</w>": 2559,
  "ran</w>": 2560,
  "fell</w>": 2561,
  "indeed</w>": 2562,
  "“If</w>": 2563,
  "ones</w>": 2564,
  "aint</w>": 2565,
  "desc": 2566,
  "le:</w>": 2567,
  "attention</w>": 2568,
  "ith": 2569,
  "pressed</w>": 2570,
  "frequ": 2571,
  "us.</w>": 2572,
  "pleasure</w>": 2573,
  "ould": 2574,
  "not,</w>": 2575,
  "brother": 2576,
  "at’s</w>": 2577,
  "ounc": 2578,
  "be,</w>": 2579,
  "keep": 2580,
  "ham</w>": 2581,
  "young": 2582,
  "Doctor": 2583,
  "Pros": 2584,
  "Queequeg</w>": 2585,
  "igne": 2586,
  "proc": 2587,
  "ability</w>": 2588,
  "tem": 2589,
  "mal": 2590,
  "bil": 2591,
  "fast</w>": 2592,
  "bring</w>": 2593,
  "ock</w>": 2594,
  "twi": 2595,
  "door,</w>": 2596,
  "sav": 2597,
  "answered</w>": 2598,
  "morning,</w>": 2599,
  "murder": 2600,
  "wo": 2601,
  "Wickham": 2602,
  "find": 2603,
  "work": 2604,
  "O</w>": 2605,
  "nific": 2606,
  "desp": 2607,
  "lan": 2608,
  "ies,</w>": 2609,
  "sal": 2610,
  "ears</w>": 2611,
  "’ll</w>": 2612,
  "afr": 2613,
  "avour</w>": 2614,
  "care</w>": 2615,
  "feeling</w>": 2616,
  "escap": 2617,
  "occasion": 2618,
  "chur": 2619,
  "Monsie": 2620,
  "Monse": 2621,
  "Monseigne": 2622,
  "origin": 2623,
  "comman": 2624,
  "writt": 2625,
  "view": 2626,
  "pip": 2627,
  "influ": 2628,
  "espec": 2629,
  "zz": 2630,
  "wood": 2631,
  "pointed</w>": 2632,
  "place,</w>": 2633,
  "prett": 2634,
  "oned</w>": 2635,
  "soul": 2636,
  "ley</w>": 2637,
  "Sher": 2638,
  "vessel": 2639,
  "200": 2640,
  "Stry": 2641,
  "stract": 2642,
  "exist": 2643,
  "suffici": 2644,
  "clear</w>": 2645,
  "reco": 2646,
  "stone</w>": 2647,
  "und": 2648,
  "nearly</w>": 2649,
  "visi": 2650,
  "writ": 2651,
  "un</w>": 2652,
  "dly</w>": 2653,
  "ace": 2654,
  "room.</w>": 2655,
  "neither</w>": 2656,
  "none</w>": 2657,
  "liv": 2658,
  "affair": 2659,
  "persu": 2660,
  "inform": 2661,
  "17": 2662,
  "single</w>": 2663,
  "employ": 2664,
  "heavy</w>": 2665,
  "accor": 2666,
  "eni": 2667,
  "head.</w>": 2668,
  "aves</w>": 2669,
  "front</w>": 2670,
  "attemp": 2671,
  "wret": 2672,
  "st.</w>": 2673,
  "oured</w>": 2674,
  "neighbour": 2675,
  "prepar": 2676,
  "Ahab,</w>": 2677,
  "Tr": 2678,
  "archi": 2679,
  "board</w>": 2680,
  "avo": 2681,
  "beyond</w>": 2682,
  "ders</w>": 2683,
  "streng": 2684,
  "fixed</w>": 2685,
  "pass</w>": 2686,
  "I’m</w>": 2687,
  "“How</w>": 2688,
  "Liz": 2689,
  "soldi": 2690,
  "ague</w>": 2691,
  "Gardin": 2692,
  "ze</w>": 2693,
  "LL": 2694,
  "addres": 2695,
  "sens": 2696,
  "ender</w>": 2697,
  "spar": 2698,
  "Ger": 2699,
  "grap": 2700,
  "forward</w>": 2701,
  "ail</w>": 2702,
  "life,</w>": 2703,
  "grav": 2704,
  "sir,</w>": 2705,
  "an.</w>": 2706,
  "ow.</w>": 2707,
  "Ital": 2708,
  "Re": 2709,
  "acy</w>": 2710,
  "Pro": 2711,
  "sup": 2712,
  "tal</w>": 2713,
  "nor": 2714,
  "ternal</w>": 2715,
  "answer": 2716,
  "wea": 2717,
  "ah</w>": 2718,
  "beauti": 2719,
  "allowed</w>": 2720,
  "fol": 2721,
  "year</w>": 2722,
  "ga": 2723,
  "ir,</w>": 2724,
  "Collins</w>": 2725,
  "Jon": 2726,
  "fisher": 2727,
  "exec": 2728,
  "dic": 2729,
  "hy": 2730,
  "ments</w>": 2731,
  "Ne": 2732,
  "need": 2733,
  "ver,</w>": 2734,
  "wonder</w>": 2735,
  "heads</w>": 2736,
  "friends</w>": 2737,
  "thing.</w>": 2738,
  "slowly</w>": 2739,
  "caught</w>": 2740,
  "God</w>": 2741,
  "John</w>": 2742,
  "mother": 2743,
  "cott": 2744,
  "Stubb</w>": 2745,
  "oce": 2746,
  "aly": 2747,
  "aining</w>": 2748,
  "sense</w>": 2749,
  "ene": 2750,
  "knowledge</w>": 2751,
  "um</w>": 2752,
  "ness.</w>": 2753,
  "separ": 2754,
  "more,</w>": 2755,
  "added</w>": 2756,
  "out.</w>": 2757,
  "begin": 2758,
  "ink</w>": 2759,
  "Long": 2760,
  "return": 2761,
  "swi": 2762,
  "considered</w>": 2763,
  "fas": 2764,
  "dead": 2765,
  "lott": 2766,
  "194": 2767,
  "Title:</w>": 2768,
  "Abstract": 2769,
  "Abstract:</w>": 2770,
  "iel": 2771,
  "ness": 2772,
  "ines</w>": 2773,
  "produc": 2774,
  "English</w>": 2775,
  "Bo": 2776,
  "iling</w>": 2777,
  "situ": 2778,
  "alone</w>": 2779,
  "following</w>": 2780,
  "getting</w>": 2781,
  "curi": 2782,
  "together": 2783,
  "there.</w>": 2784,
  "away,</w>": 2785,
  "ectly</w>": 2786,
  "bear</w>": 2787,
  "Darcy,</w>": 2788,
  ",--</w>": 2789,
  "Monsieur</w>": 2790,
  "mean</w>": 2791,
  "stem": 2792,
  "represent": 2793,
  "s?</w>": 2794,
  "ony</w>": 2795,
  "pros": 2796,
  "proper": 2797,
  "late</w>": 2798,
  "Mor": 2799,
  "resid": 2800,
  "back,</w>": 2801,
  "asp": 2802,
  "chance</w>": 2803,
  "ful,</w>": 2804,
  "particular</w>": 2805,
  "Pi": 2806,
  "before,</w>": 2807,
  "trem": 2808,
  "know,</w>": 2809,
  "born</w>": 2810,
  "furn": 2811,
  "evening</w>": 2812,
  "Charles</w>": 2813,
  "Castruccio</w>": 2814,
  "counten": 2815,
  "itary</w>": 2816,
  "ton</w>": 2817,
  "agg": 2818,
  "Lizz": 2819,
  "self-": 2820,
  "paper</w>": 2821,
  "run</w>": 2822,
  "sugg": 2823,
  "early</w>": 2824,
  "over,</w>": 2825,
  "erc": 2826,
  "Do</w>": 2827,
  "“No,</w>": 2828,
  "subject</w>": 2829,
  "van": 2830,
  "expect": 2831,
  "’s,</w>": 2832,
  "pretty</w>": 2833,
  "noble</w>": 2834,
  "conce": 2835,
  "light,</w>": 2836,
  "onel</w>": 2837,
  "instant</w>": 2838,
  "ically</w>": 2839,
  "Or": 2840,
  "ounds</w>": 2841,
  "ency</w>": 2842,
  "trans": 2843,
  "lem": 2844,
  "rib": 2845,
  "need</w>": 2846,
  "ool</w>": 2847,
  "greater</w>": 2848,
  "exact": 2849,
  "ia</w>": 2850,
  "heal": 2851,
  "ban": 2852,
  "house": 2853,
  "gard": 2854,
  "cut</w>": 2855,
  "wel": 2856,
  "“That</w>": 2857,
  "French</w>": 2858,
  "our,</w>": 2859,
  "enjo": 2860,
  "gaz": 2861,
  "citiz": 2862,
  "captain": 2863,
  "forth</w>": 2864,
  "friend,</w>": 2865,
  "aying</w>": 2866,
  "bal": 2867,
  "post": 2868,
  "t-": 2869,
  "vel</w>": 2870,
  "simil": 2871,
  "author": 2872,
  "number</w>": 2873,
  "ive</w>": 2874,
  "reached</w>": 2875,
  "question</w>": 2876,
  "utting</w>": 2877,
  "recor": 2878,
  "well,</w>": 2879,
  "air,</w>": 2880,
  "cold</w>": 2881,
  "continued</w>": 2882,
  "fore</w>": 2883,
  "imagin": 2884,
  "town</w>": 2885,
  "vious</w>": 2886,
  "agree": 2887,
  "ps</w>": 2888,
  "er-": 2889,
  "view</w>": 2890,
  "question": 2891,
  "oper": 2892,
  "lex": 2893,
  "ings.</w>": 2894,
  "distinc": 2895,
  "ships</w>": 2896,
  "ted,</w>": 2897,
  "tried</w>": 2898,
  "she": 2899,
  "saying</w>": 2900,
  "!’</w>": 2901,
  "fright": 2902,
  "easily</w>": 2903,
  "whatever</w>": 2904,
  "broken</w>": 2905,
  "wear": 2906,
  "armed</w>": 2907,
  "appearance</w>": 2908,
  "aston": 2909,
  "cous": 2910,
  "saf": 2911,
  "s-": 2912,
  "met": 2913,
  "top": 2914,
  "far": 2915,
  "gli": 2916,
  "priv": 2917,
  "gan": 2918,
  "preci": 2919,
  "remo": 2920,
  "ames</w>": 2921,
  "especially</w>": 2922,
  "six</w>": 2923,
  "14": 2924,
  "New</w>": 2925,
  "times,</w>": 2926,
  "dom</w>": 2927,
  "ester": 2928,
  "mention": 2929,
  "me.”</w>": 2930,
  "—_": 2931,
  "morr": 2932,
  "ship’s</w>": 2933,
  "Sherlock</w>": 2934,
  "sof": 2935,
  "tured</w>": 2936,
  "field</w>": 2937,
  "ordinary</w>": 2938,
  "1</w>": 2939,
  "therefore</w>": 2940,
  "ided</w>": 2941,
  "ide</w>": 2942,
  "written</w>": 2943,
  "easy</w>": 2944,
  "Yet</w>": 2945,
  "absol": 2946,
  "ely,</w>": 2947,
  "curious</w>": 2948,
  "bad</w>": 2949,
  "whisp": 2950,
  "perfectly</w>": 2951,
  "ed.”</w>": 2952,
  "engaged</w>": 2953,
  "greatest</w>": 2954,
  "est,</w>": 2955,
  "liber": 2956,
  "Lord</w>": 2957,
  "ward,</w>": 2958,
  "peculiar</w>": 2959,
  "Elizabeth": 2960,
  "God": 2961,
  "duce</w>": 2962,
  "5</w>": 2963,
  "IS": 2964,
  "trad": 2965,
  "hin": 2966,
  "scarc": 2967,
  "ves,</w>": 2968,
  "p,</w>": 2969,
  "il,</w>": 2970,
  "remember</w>": 2971,
  "longer</w>": 2972,
  "Christ": 2973,
  "look": 2974,
  "“There</w>": 2975,
  "running</w>": 2976,
  "“No": 2977,
  "half-": 2978,
  "them;</w>": 2979,
  "red,</w>": 2980,
  "cred": 2981,
  "vast</w>": 2982,
  "Collin": 2983,
  "arded</w>": 2984,
  "visit": 2985,
  "Tell": 2986,
  "197": 2987,
  "ine": 2988,
  "ution</w>": 2989,
  "velop": 2990,
  "bi": 2991,
  "use,</w>": 2992,
  "complet": 2993,
  "art": 2994,
  "ashed</w>": 2995,
  "herself,</w>": 2996,
  "goes</w>": 2997,
  "s,”</w>": 2998,
  "“A</w>": 2999,
  "incl": 3000,
  "save</w>": 3001,
  "leaving</w>": 3002,
  "prisoner</w>": 3003,
  "govern": 3004,
  "hapter</w>": 3005,
  "bed,</w>": 3006,
  "coff": 3007,
  "Ref": 3008,
  "boats</w>": 3009,
  "Manett": 3010,
  "multi": 3011,
  "prac": 3012,
  "ment.</w>": 3013,
  "Ag": 3014,
  "e:</w>": 3015,
  "child</w>": 3016,
  "play</w>": 3017,
  "long,</w>": 3018,
  "afraid</w>": 3019,
  "doubt": 3020,
  "creature</w>": 3021,
  "best": 3022,
  "based</w>": 3023,
  "in-": 3024,
  "beha": 3025,
  "mark</w>": 3026,
  "establ": 3027,
  "sible</w>": 3028,
  "remain</w>": 3029,
  "lies</w>": 3030,
  "mut": 3031,
  "own.</w>": 3032,
  "free</w>": 3033,
  "mas": 3034,
  "firm": 3035,
  "judg": 3036,
  "tin": 3037,
  "allow</w>": 3038,
  "makes</w>": 3039,
  "compl": 3040,
  "ved,</w>": 3041,
  "write</w>": 3042,
  "ignor": 3043,
  "consequ": 3044,
  "Sou": 3045,
  "that’s</w>": 3046,
  "door": 3047,
  "Such</w>": 3048,
  "kne": 3049,
  "story</w>": 3050,
  "he’s</w>": 3051,
  "“B": 3052,
  "temp": 3053,
  "thoughts</w>": 3054,
  "enge": 3055,
  "Go": 3056,
  "Bennet,</w>": 3057,
  "Charlott": 3058,
  "however</w>": 3059,
  "Refer": 3060,
  "ential</w>": 3061,
  "bit</w>": 3062,
  "amb": 3063,
  "preser": 3064,
  "showed</w>": 3065,
  "cop": 3066,
  "ton": 3067,
  "way.</w>": 3068,
  "prev": 3069,
  "Po": 3070,
  "ax": 3071,
  "forced</w>": 3072,
  "consider</w>": 3073,
  "scene</w>": 3074,
  "exceed": 3075,
  "7</w>": 3076,
  "steps</w>": 3077,
  "says</w>": 3078,
  "ate.</w>": 3079,
  "“but</w>": 3080,
  "giving</w>": 3081,
  "lean": 3082,
  "o.</w>": 3083,
  "proceed": 3084,
  "rose</w>": 3085,
  "mere</w>": 3086,
  "Longbour": 3087,
  "beneath</w>": 3088,
  "iron</w>": 3089,
  "model</w>": 3090,
  "al-": 3091,
  "positi": 3092,
  "ale</w>": 3093,
  "open": 3094,
  "communic": 3095,
  "sion.</w>": 3096,
  "omen": 3097,
  "ession</w>": 3098,
  "likely</w>": 3099,
  "voic": 3100,
  "[Illustration]</w>": 3101,
  "sitting</w>": 3102,
  "e!”</w>": 3103,
  "bling</w>": 3104,
  "gall": 3105,
  "dropped</w>": 3106,
  "can’t</w>": 3107,
  "sudden</w>": 3108,
  "anted</w>": 3109,
  "Some</w>": 3110,
  "It’s</w>": 3111,
  "ash</w>": 3112,
  "Now</w>": 3113,
  "amp</w>": 3114,
  "Catherine</w>": 3115,
  "sperm</w>": 3116,
  "moder": 3117,
  "Ac": 3118,
  "ested</w>": 3119,
  "fut": 3120,
  "sent": 3121,
  "invol": 3122,
  "interest</w>": 3123,
  "drawn</w>": 3124,
  "AN": 3125,
  "excell": 3126,
  "past</w>": 3127,
  "cast": 3128,
  "foun": 3129,
  "talk</w>": 3130,
  "blue</w>": 3131,
  "y?”</w>": 3132,
  "repeated</w>": 3133,
  "elling</w>": 3134,
  "you.”</w>": 3135,
  "const": 3136,
  "fair</w>": 3137,
  "miserable</w>": 3138,
  "fortune</w>": 3139,
  "character</w>": 3140,
  "eless,</w>": 3141,
  "wished</w>": 3142,
  "Wickham</w>": 3143,
  "acquaint": 3144,
  "Stre": 3145,
  "evi": 3146,
  "Tellson": 3147,
  "Defarge,</w>": 3148,
  "tical</w>": 3149,
  "Me": 3150,
  "ground</w>": 3151,
  "Here</w>": 3152,
  "exactly</w>": 3153,
  "u</w>": 3154,
  "do,</w>": 3155,
  "(_": 3156,
  "king": 3157,
  "hair</w>": 3158,
  "suppose</w>": 3159,
  "ans,</w>": 3160,
  "quickly</w>": 3161,
  "phe": 3162,
  "ary,</w>": 3163,
  "married</w>": 3164,
  "Marqu": 3165,
  "resolved</w>": 3166,
  "ayed</w>": 3167,
  "phi": 3168,
  "father’s</w>": 3169,
  "ild": 3170,
  "ining</w>": 3171,
  "consist": 3172,
  "valu": 3173,
  "erg": 3174,
  "subst": 3175,
  "lower</w>": 3176,
  "16": 3177,
  "While</w>": 3178,
  "dem": 3179,
  "ead</w>": 3180,
  "yet,</w>": 3181,
  "moment,</w>": 3182,
  "o’": 3183,
  "spect": 3184,
  "fashi": 3185,
  "concerning</w>": 3186,
  "emb": 3187,
  "scarcely</w>": 3188,
  "perhaps,</w>": 3189,
  "delic": 3190,
  "fire</w>": 3191,
  "Ros": 3192,
  "George</w>": 3193,
  "ball</w>": 3194,
  "n.</w>": 3195,
  "ung": 3196,
  "boat,</w>": 3197,
  "ome": 3198,
  "erous</w>": 3199,
  "wand": 3200,
  "happened</w>": 3201,
  "minutes</w>": 3202,
  "darkn": 3203,
  "que": 3204,
  "water,</w>": 3205,
  "—the</w>": 3206,
  "quiet": 3207,
  "raised</w>": 3208,
  "chair</w>": 3209,
  "ece</w>": 3210,
  "chief</w>": 3211,
  "thrown</w>": 3212,
  "Phi": 3213,
  "enter</w>": 3214,
  "opinion</w>": 3215,
  "endeavour": 3216,
  "Lydia</w>": 3217,
  "Colonel</w>": 3218,
  "Moby</w>": 3219,
  "References</w>": 3220,
  "monstr": 3221,
  "tiv": 3222,
  "tions,</w>": 3223,
  "step</w>": 3224,
  "ends</w>": 3225,
  "tum": 3226,
  "mistak": 3227,
  "collec": 3228,
  "midd": 3229,
  "78": 3230,
  "“Do</w>": 3231,
  "dog": 3232,
  "polit": 3233,
  "es!</w>": 3234,
  "away.</w>": 3235,
  "arrang": 3236,
  "immediately</w>": 3237,
  "appear</w>": 3238,
  "other.</w>": 3239,
  "honour</w>": 3240,
  "enem": 3241,
  "brother</w>": 3242,
  "dut": 3243,
  "engag": 3244,
  "husband</w>": 3245,
  "happiness</w>": 3246,
  "symp": 3247,
  "Stubb,</w>": 3248,
  "How": 3249,
  "yiel": 3250,
  "seam": 3251,
  "degree</w>": 3252,
  "follow</w>": 3253,
  "tail": 3254,
  "along": 3255,
  "is.</w>": 3256,
  "conversation</w>": 3257,
  "ood.</w>": 3258,
  "ated,</w>": 3259,
  "impres": 3260,
  "deal</w>": 3261,
  "voice,</w>": 3262,
  "last,</w>": 3263,
  "fellow": 3264,
  "OR": 3265,
  "unless</w>": 3266,
  "erly</w>": 3267,
  "spent</w>": 3268,
  "Pe": 3269,
  "Bar": 3270,
  "ard.</w>": 3271,
  "horri": 3272,
  "beaut": 3273,
  "embr": 3274,
  "remains</w>": 3275,
  "rob": 3276,
  "cep": 3277,
  "res</w>": 3278,
  "secur": 3279,
  "intelli": 3280,
  "vari": 3281,
  "ics</w>": 3282,
  "moment": 3283,
  "merely</w>": 3284,
  "expected</w>": 3285,
  "ets,</w>": 3286,
  "shap": 3287,
  "window</w>": 3288,
  "acked</w>": 3289,
  "Uni": 3290,
  "famili": 3291,
  "—”</w>": 3292,
  "glad</w>": 3293,
  "rying</w>": 3294,
  "pleasant</w>": 3295,
  "together,</w>": 3296,
  "cry</w>": 3297,
  "meet</w>": 3298,
  "eleg": 3299,
  "doing</w>": 3300,
  "es,”</w>": 3301,
  "on;</w>": 3302,
  "done,</w>": 3303,
  "vil</w>": 3304,
  "aj": 3305,
  "company</w>": 3306,
  "Florent": 3307,
  "marriage</w>": 3308,
  "Nor</w>": 3309,
  "wall": 3310,
  "affection</w>": 3311,
  "to-morr": 3312,
  "he.</w>": 3313,
  "whaling</w>": 3314,
  "tering</w>": 3315,
  "vision</w>": 3316,
  "learned</w>": 3317,
  "AI": 3318,
  "thinking</w>": 3319,
  "parti": 3320,
  "respect": 3321,
  "anxi": 3322,
  "party</w>": 3323,
  "air.</w>": 3324,
  "threw</w>": 3325,
  "ung</w>": 3326,
  "reti": 3327,
  "appar": 3328,
  "fellow</w>": 3329,
  "case,</w>": 3330,
  "inced</w>": 3331,
  "cast</w>": 3332,
  "Jane,</w>": 3333,
  "Chapter</w>": 3334,
  "night.</w>": 3335,
  "oar": 3336,
  "Syd": 3337,
  "T</w>": 3338,
  "ple</w>": 3339,
  "simp": 3340,
  "system": 3341,
  "frame": 3342,
  "behavi": 3343,
  "ations.</w>": 3344,
  "ON": 3345,
  "repor": 3346,
  "iv": 3347,
  "when,</w>": 3348,
  "conclud": 3349,
  "passing</w>": 3350,
  "instantly</w>": 3351,
  "won’t</w>": 3352,
  "cheer": 3353,
  "solem": 3354,
  "dare</w>": 3355,
  "shook</w>": 3356,
  "se;</w>": 3357,
  "ford</w>": 3358,
  "secret</w>": 3359,
  "destroy": 3360,
  "prot": 3361,
  "Of</w>": 3362,
  "soul</w>": 3363,
  "ladies</w>": 3364,
  "innoc": 3365,
  "carriage</w>": 3366,
  "Holmes.</w>": 3367,
  "crew</w>": 3368,
  "Jacqu": 3369,
  "–</w>": 3370,
  "particularly</w>": 3371,
  "pati": 3372,
  "ribu": 3373,
  "where": 3374,
  "AR": 3375,
  "clu": 3376,
  "gres": 3377,
  "Rep": 3378,
  "grad": 3379,
  "top</w>": 3380,
  "doc": 3381,
  "blood</w>": 3382,
  "Your</w>": 3383,
  "l,</w>": 3384,
  "started</w>": 3385,
  "filled</w>": 3386,
  "think": 3387,
  "ah": 3388,
  "Alice,</w>": 3389,
  "jaw": 3390,
  "belong": 3391,
  "Mer": 3392,
  "“_": 3393,
  "There": 3394,
  "determined</w>": 3395,
  "mountain": 3396,
  "Nether": 3397,
  "Pequod</w>": 3398,
  "Levi": 3399,
  "sail</w>": 3400,
  "deck,</w>": 3401,
  "NB": 3402,
  "clas": 3403,
  "LLM": 3404,
  "bed": 3405,
  "thes": 3406,
  "non": 3407,
  "superi": 3408,
  "shot</w>": 3409,
  "instead</w>": 3410,
  "itation</w>": 3411,
  "visit</w>": 3412,
  "corner</w>": 3413,
  "ket,</w>": 3414,
  "straight</w>": 3415,
  "fall</w>": 3416,
  "I’ve</w>": 3417,
  "earth": 3418,
  "twenty</w>": 3419,
  "London</w>": 3420,
  "—a</w>": 3421,
  "joined</w>": 3422,
  "beautiful</w>": 3423,
  "tos": 3424,
  "at.</w>": 3425,
  "Dr": 3426,
  "looks</w>": 3427,
  "might": 3428,
  "fort</w>": 3429,
  "[Illustration:</w>": 3430,
  "whale’s</w>": 3431,
  "Bild": 3432,
  "foot": 3433,
  "action</w>": 3434,
  "ase</w>": 3435,
  "gor": 3436,
  "signific": 3437,
  "issu": 3438,
  "elev": 3439,
  "prehen": 3440,
  "wind</w>": 3441,
  "lying</w>": 3442,
  "gro": 3443,
  "opportunity</w>": 3444,
  "12": 3445,
  "world,</w>": 3446,
  "disap": 3447,
  "off,</w>": 3448,
  "but": 3449,
  "ull</w>": 3450,
  "William</w>": 3451,
  "subject": 3452,
  "stopped</w>": 3453,
  "?—": 3454,
  "it?”</w>": 3455,
  "fle": 3456,
  "exclaim": 3457,
  "“L": 3458,
  "desire</w>": 3459,
  "oler": 3460,
  "Sir</w>": 3461,
  "hill": 3462,
  "mast-": 3463,
  "Queequeg,</w>": 3464,
  "pend": 3465,
  "capable</w>": 3466,
  "success": 3467,
  "public</w>": 3468,
  "So": 3469,
  "13": 3470,
  "9</w>": 3471,
  "aver": 3472,
  "disco": 3473,
  "ly": 3474,
  "ould,</w>": 3475,
  "hurried</w>": 3476,
  "curios": 3477,
  "to,</w>": 3478,
  "walk</w>": 3479,
  "walking</w>": 3480,
  "remember": 3481,
  "—and</w>": 3482,
  "pping</w>": 3483,
  "“In</w>": 3484,
  "mind,</w>": 3485,
  "here’s</w>": 3486,
  "ill,</w>": 3487,
  "self;</w>": 3488,
  "repli": 3489,
  "settled</w>": 3490,
  "rid": 3491,
  "ck.</w>": 3492,
  "closed</w>": 3493,
  "restor": 3494,
  "fresh</w>": 3495,
  "recol": 3496,
  "recollec": 3497,
  "latter</w>": 3498,
  "astonish": 3499,
  "alu": 3500,
  "fal": 3501,
  "driven</w>": 3502,
  "table,</w>": 3503,
  "pt</w>": 3504,
  "evol": 3505,
  "iter": 3506,
  "third</w>": 3507,
  "ring</w>": 3508,
  "qual": 3509,
  "ures,</w>": 3510,
  "highly</w>": 3511,
  "surr": 3512,
  "tle</w>": 3513,
  "miles</w>": 3514,
  "for,</w>": 3515,
  "knows</w>": 3516,
  "speaking</w>": 3517,
  "quiet</w>": 3518,
  "knowing</w>": 3519,
  "bent</w>": 3520,
  "“Then</w>": 3521,
  "tee": 3522,
  "oppos": 3523,
  "sea-": 3524,
  "Y</w>": 3525,
  "rever": 3526,
  "ck</w>": 3527,
  "sac": 3528,
  "considerable</w>": 3529,
  "--and</w>": 3530,
  "analy": 3531,
  "10": 3532,
  "ce,</w>": 3533,
  "Our</w>": 3534,
  "Archi": 3535,
  "phy": 3536,
  "cus": 3537,
  "emo": 3538,
  "ion.</w>": 3539,
  "respon": 3540,
  "aching</w>": 3541,
  "med</w>": 3542,
  "Am": 3543,
  "ling": 3544,
  "ner,</w>": 3545,
  "saw": 3546,
  "bright</w>": 3547,
  "rising</w>": 3548,
  "civil": 3549,
  "drawing</w>": 3550,
  "fish</w>": 3551,
  "XX": 3552,
  "devo": 3553,
  "months</w>": 3554,
  "captain</w>": 3555,
  "agu": 3556,
  "compli": 3557,
  "Kitt": 3558,
  "Starbuck</w>": 3559,
  "fy</w>": 3560,
  "comb": 3561,
  "models</w>": 3562,
  "Ro": 3563,
  "arm,</w>": 3564,
  "tar": 3565,
  "wide</w>": 3566,
  "icial</w>": 3567,
  "pan": 3568,
  "pair</w>": 3569,
  "tice</w>": 3570,
  "ters,</w>": 3571,
  "six": 3572,
  "pock": 3573,
  "notic": 3574,
  "she,</w>": 3575,
  "comfort": 3576,
  "ared</w>": 3577,
  "Very</w>": 3578,
  "myself,</w>": 3579,
  "fat": 3580,
  "impossible</w>": 3581,
  "not.</w>": 3582,
  "May</w>": 3583,
  "send</w>": 3584,
  "le;</w>": 3585,
  "chief": 3586,
  "believed</w>": 3587,
  "land,</w>": 3588,
  "batt": 3589,
  "will,</w>": 3590,
  "probably</w>": 3591,
  "omin": 3592,
  "lips</w>": 3593,
  "women</w>": 3594,
  "Heav": 3595,
  "Ahab’s</w>": 3596,
  "regi": 3597,
  "work,</w>": 3598,
  "introduc": 3599,
  "ements</w>": 3600,
  "suppor": 3601,
  "reve": 3602,
  "four": 3603,
  "proper</w>": 3604,
  "bol": 3605,
  "sign</w>": 3606,
  "subjec": 3607,
  "manner,</w>": 3608,
  "city</w>": 3609,
  "On": 3610,
  "pill": 3611,
  "Who</w>": 3612,
  "ath,</w>": 3613,
  "changed</w>": 3614,
  "shri": 3615,
  "on’t</w>": 3616,
  "course,</w>": 3617,
  "sharp</w>": 3618,
  "side.</w>": 3619,
  "interrup": 3620,
  "lived</w>": 3621,
  "fortunate</w>": 3622,
  "les,</w>": 3623,
  "wro": 3624,
  "sister,</w>": 3625,
  "others,</w>": 3626,
  "asc": 3627,
  "ances,</w>": 3628,
  "cham": 3629,
  "losop": 3630,
  "arrived</w>": 3631,
  "Well,</w>": 3632,
  "Oc": 3633,
  "perfor": 3634,
  "language</w>": 3635,
  "weak": 3636,
  "satisfac": 3637,
  "ams</w>": 3638,
  "ed:</w>": 3639,
  "ts.</w>": 3640,
  "pret": 3641,
  "broad</w>": 3642,
  "versity</w>": 3643,
  "ation;</w>": 3644,
  "plain</w>": 3645,
  "enomen": 3646,
  "roo": 3647,
  "as,</w>": 3648,
  "fro": 3649,
  "secure</w>": 3650,
  "ag</w>": 3651,
  "worth</w>": 3652,
  "THE</w>": 3653,
  "beginning</w>": 3654,
  "see,</w>": 3655,
  "word": 3656,
  "fancy</w>": 3657,
  "generally</w>": 3658,
  "ing.”</w>": 3659,
  "“We</w>": 3660,
  "life.</w>": 3661,
  "more.</w>": 3662,
  ".—": 3663,
  "impati": 3664,
  "silence</w>": 3665,
  "stret": 3666,
  "silent</w>": 3667,
  "rolled</w>": 3668,
  "per,</w>": 3669,
  "sea.</w>": 3670,
  "reading</w>": 3671,
  "prud": 3672,
  "private</w>": 3673,
  "attered</w>": 3674,
  "profes": 3675,
  "assure</w>": 3676,
  "bodi": 3677,
  "ami": 3678,
  "clou": 3679,
  "Jerr": 3680,
  "craf": 3681,
  "Di": 3682,
  "educ": 3683,
  "key</w>": 3684,
  "202": 3685,
  "ound.</w>": 3686,
  "coo": 3687,
  "window,</w>": 3688,
  "Bl": 3689,
  "ils</w>": 3690,
  "expression</w>": 3691,
  "rapid": 3692,
  "seven</w>": 3693,
  "figure</w>": 3694,
  "never": 3695,
  "aught</w>": 3696,
  "tast": 3697,
  "happen": 3698,
  "first,</w>": 3699,
  "caused</w>": 3700,
  "“This</w>": 3701,
  "en;</w>": 3702,
  "led.</w>": 3703,
  "delight": 3704,
  "boy": 3705,
  "utely</w>": 3706,
  "want": 3707,
  "sweet</w>": 3708,
  "Why</w>": 3709,
  "uncle</w>": 3710,
  "American</w>": 3711,
  "deck</w>": 3712,
  "Just": 3713,
  "performan": 3714,
  "wei": 3715,
  "ming</w>": 3716,
  "ate": 3717,
  "lead": 3718,
  "found": 3719,
  "ill-": 3720,
  "news</w>": 3721,
  "popul": 3722,
  "m.</w>": 3723,
  "ain,</w>": 3724,
  "excellent</w>": 3725,
  "dering</w>": 3726,
  "follow": 3727,
  "mus": 3728,
  "kin": 3729,
  "ouldn’t</w>": 3730,
  "talking</w>": 3731,
  "hall</w>": 3732,
  "rushed</w>": 3733,
  "sleep</w>": 3734,
  "o’c": 3735,
  "spoken</w>": 3736,
  "anci": 3737,
  "obe": 3738,
  "occupied</w>": 3739,
  "expect</w>": 3740,
  "entre": 3741,
  "Hun": 3742,
  "suffer": 3743,
  "vac": 3744,
  "wed": 3745,
  "visible</w>": 3746,
  "devil": 3747,
  "Saint</w>": 3748,
  "evalu": 3749,
  "aliz": 3750,
  "pac": 3751,
  "Wor": 3752,
  "siz": 3753,
  "Pri": 3754,
  "Gener": 3755,
  "knowledg": 3756,
  "through": 3757,
  "istr": 3758,
  "are,</w>": 3759,
  "ination</w>": 3760,
  "centur": 3761,
  "enced</w>": 3762,
  "otherwise</w>": 3763,
  "encour": 3764,
  "s!”</w>": 3765,
  "you,”</w>": 3766,
  "foot</w>": 3767,
  "pun": 3768,
  "“Not</w>": 3769,
  "meet": 3770,
  "pet": 3771,
  "touch</w>": 3772,
  "yph": 3773,
  "accid": 3774,
  "Though</w>": 3775,
  "aster": 3776,
  "gar": 3777,
  "danger</w>": 3778,
  "mother,</w>": 3779,
  "husband": 3780,
  "ay.</w>": 3781,
  "pot": 3782,
  "However,</w>": 3783,
  "terms</w>": 3784,
  "schem": 3785,
  "compas": 3786,
  "s)</w>": 3787,
  "requir": 3788,
  "le-": 3789,
  "architec": 3790,
  "a-": 3791,
  "discover": 3792,
  "character": 3793,
  "nest": 3794,
  "similar</w>": 3795,
  "Up": 3796,
  "Ste": 3797,
  "mater": 3798,
  "incid": 3799,
  "conveni": 3800,
  "discovered</w>": 3801,
  "listened</w>": 3802,
  "aled</w>": 3803,
  "like": 3804,
  "watch</w>": 3805,
  "sad": 3806,
  "things,</w>": 3807,
  "there’s</w>": 3808,
  "twel": 3809,
  "Inde": 3810,
  "ish,</w>": 3811,
  "piec": 3812,
  "face.</w>": 3813,
  "child": 3814,
  "wrote</w>": 3815,
  "distance</w>": 3816,
  "favour</w>": 3817,
  "ous.</w>": 3818,
  "road</w>": 3819,
  "om,</w>": 3820,
  "seek</w>": 3821,
  "philosop": 3822,
  "slight</w>": 3823,
  "thern</w>": 3824,
  "mortal</w>": 3825,
  "yell": 3826,
  "195": 3827,
  "193": 3828,
  "de.</w>": 3829,
  "demonstr": 3830,
  "learning</w>": 3831,
  "Med": 3832,
  "carry</w>": 3833,
  "ental</w>": 3834,
  "rele": 3835,
  "sufficient</w>": 3836,
  "associ": 3837,
  "Fir": 3838,
  "Can": 3839,
  "influence</w>": 3840,
  "effect</w>": 3841,
  "nal</w>": 3842,
  "Indian</w>": 3843,
  "Lo": 3844,
  "promise</w>": 3845,
  "letters</w>": 3846,
  "em</w>": 3847,
  "s?”</w>": 3848,
  "waiting</w>": 3849,
  "soon": 3850,
  "tro": 3851,
  "Besid": 3852,
  "world": 3853,
  "extra": 3854,
  "were,</w>": 3855,
  "house.</w>": 3856,
  "ement,</w>": 3857,
  "distur": 3858,
  "village</w>": 3859,
  "encoun": 3860,
  "whales,</w>": 3861,
  "Lucie</w>": 3862,
  "Pross,</w>": 3863,
  "important</w>": 3864,
  ".,</w>": 3865,
  "ounding</w>": 3866,
  "ol,</w>": 3867,
  "intellig": 3868,
  "C</w>": 3869,
  "learn": 3870,
  "wid": 3871,
  "directly</w>": 3872,
  "future</w>": 3873,
  "De": 3874,
  "ty.</w>": 3875,
  "expressed</w>": 3876,
  "fact</w>": 3877,
  "entire</w>": 3878,
  "frequently</w>": 3879,
  "custom": 3880,
  "ane": 3881,
  "ises</w>": 3882,
  "served</w>": 3883,
  "power": 3884,
  "ford": 3885,
  "while,</w>": 3886,
  "mine</w>": 3887,
  "’re</w>": 3888,
  "girl</w>": 3889,
  "holding</w>": 3890,
  "go,</w>": 3891,
  "think,</w>": 3892,
  "All": 3893,
  "apped</w>": 3894,
  "tom": 3895,
  "Their</w>": 3896,
  "later</w>": 3897,
  "guil": 3898,
  "Machi": 3899,
  "Machiav": 3900,
  "summ": 3901,
  "seized</w>": 3902,
  "touching</w>": 3903,
  "agreeable</w>": 3904,
  "coach": 3905,
  "shop": 3906,
  "Mc": 3907,
  "Nantuck": 3908,
  "Cler": 3909,
  "196": 3910,
  "distingu": 3911,
  "grou": 3912,
  "itive</w>": 3913,
  "o-": 3914,
  "Ri": 3915,
  "trust": 3916,
  "tions.</w>": 3917,
  "tures</w>": 3918,
  "horiz": 3919,
  "crit": 3920,
  "invest": 3921,
  "infer": 3922,
  "warm": 3923,
  "faces</w>": 3924,
  "memor": 3925,
  "manag": 3926,
  "ented</w>": 3927,
  "hoo": 3928,
  "mov": 3929,
  "lamp": 3930,
  "_that": 3931,
  "had,</w>": 3932,
  "possibly</w>": 3933,
  "“They</w>": 3934,
  "wanted</w>": 3935,
  "master</w>": 3936,
  "spite</w>": 3937,
  "bs</w>": 3938,
  "hand.</w>": 3939,
  "anch": 3940,
  "extrem": 3941,
  "chee": 3942,
  "seated</w>": 3943,
  "Machiavelli": 3944,
  "7.</w>": 3945,
  "circumstances</w>": 3946,
  "habit": 3947,
  "kil": 3948,
  "people,</w>": 3949,
  "killed</w>": 3950,
  "wholly</w>": 3951,
  "thee</w>": 3952,
  "ton,</w>": 3953,
  "bon": 3954,
  "an’s</w>": 3955,
  "ship.</w>": 3956,
  "wav": 3957,
  "Jer": 3958,
  "Monseigneur": 3959,
  "sour": 3960,
  "ks.</w>": 3961,
  "respec": 3962,
  "address</w>": 3963,
  "'</w>": 3964,
  "safe": 3965,
  "ption</w>": 3966,
  "neg": 3967,
  "German</w>": 3968,
  "slight": 3969,
  "Dec": 3970,
  "respect</w>": 3971,
  "abs": 3972,
  "children</w>": 3973,
  "difficult</w>": 3974,
  "Then,</w>": 3975,
  "cli": 3976,
  "surprised</w>": 3977,
  "spirit": 3978,
  "here.</w>": 3979,
  "ity;</w>": 3980,
  "quick</w>": 3981,
  "anxious</w>": 3982,
  "word,</w>": 3983,
  "obliged</w>": 3984,
  "money</w>": 3985,
  "acted</w>": 3986,
  "mention</w>": 3987,
  "mighty</w>": 3988,
  "home,</w>": 3989,
  "consol": 3990,
  "happin": 3991,
  "sympath": 3992,
  "Starbuck,</w>": 3993,
  "dy": 3994,
  "framework</w>": 3995,
  "level</w>": 3996,
  "search</w>": 3997,
  "tural</w>": 3998,
  "conclu": 3999,
  "pon": 4000,
  "black": 4001,
  "faith": 4002,
  "ies.</w>": 4003,
  "presented</w>": 4004,
  "wards,</w>": 4005,
  "1,</w>": 4006,
  "bread": 4007,
  "well.</w>": 4008,
  "accompl": 4009,
  "adi": 4010,
  "divid": 4011,
  "years,</w>": 4012,
  "purpose</w>": 4013,
  "Que": 4014,
  "marked</w>": 4015,
  ";—": 4016,
  "hands,</w>": 4017,
  "avoid</w>": 4018,
  "sit</w>": 4019,
  "“P": 4020,
  "good-": 4021,
  "inj": 4022,
  "succeed": 4023,
  "draw</w>": 4024,
  "amed</w>": 4025,
  "Har": 4026,
  "added,</w>": 4027,
  "come,</w>": 4028,
  "lexand": 4029,
  "himself.</w>": 4030,
  "till": 4031,
  "ebr": 4032,
  "isto": 4033,
  "gun": 4034,
  "amaz": 4035,
  "him.”</w>": 4036,
  "Nantuc": 4037,
  "whale.</w>": 4038,
  "L</w>": 4039,
  "ism</w>": 4040,
  "metho": 4041,
  "cou": 4042,
  "design": 4043,
  "ors,</w>": 4044,
  "ves.</w>": 4045,
  "meaning</w>": 4046,
  "interval": 4047,
  "regul": 4048,
  "lic</w>": 4049,
  "native</w>": 4050,
  "ace,</w>": 4051,
  "strum": 4052,
  "ble.</w>": 4053,
  "less,</w>": 4054,
  "itz": 4055,
  "unknown</w>": 4056,
  "complete</w>": 4057,
  "sight": 4058,
  "shown</w>": 4059,
  "Are</w>": 4060,
  "tea": 4061,
  "6.</w>": 4062,
  "according</w>": 4063,
  "kes</w>": 4064,
  "ept": 4065,
  "thought,</w>": 4066,
  "V.</w>": 4067,
  "trouble</w>": 4068,
  "remarkable</w>": 4069,
  "stay</w>": 4070,
  "ence;</w>": 4071,
  "sure": 4072,
  "ouse</w>": 4073,
  "Perhap": 4074,
  "matter": 4075,
  "ney,</w>": 4076,
  "gras": 4077,
  "earth</w>": 4078,
  "Hat": 4079,
  "ame.</w>": 4080,
  "attended</w>": 4081,
  "dreadful</w>": 4082,
  "men.</w>": 4083,
  "9.</w>": 4084,
  "a’s</w>": 4085,
  "theless,</w>": 4086,
  "famous</w>": 4087,
  "regard</w>": 4088,
  "family,</w>": 4089,
  "supposed</w>": 4090,
  "Ev": 4091,
  "passeng": 4092,
  "Darnay</w>": 4093,
  "atic</w>": 4094,
  "enab": 4095,
  "of-": 4096,
  "lay": 4097,
  "construc": 4098,
  "information</w>": 4099,
  "aim</w>": 4100,
  "well-": 4101,
  "bility</w>": 4102,
  "ky</w>": 4103,
  "middle</w>": 4104,
  "conduct</w>": 4105,
  "key": 4106,
  "spl": 4107,
  "se-": 4108,
  "8</w>": 4109,
  "mission</w>": 4110,
  "break</w>": 4111,
  "receive</w>": 4112,
  "words,</w>": 4113,
  "5.</w>": 4114,
  "entr": 4115,
  "hair": 4116,
  "i,</w>": 4117,
  "fun": 4118,
  "ny</w>": 4119,
  "passage</w>": 4120,
  "“you</w>": 4121,
  "Mary</w>": 4122,
  "fool": 4123,
  "attempt</w>": 4124,
  "rise</w>": 4125,
  "bound</w>": 4126,
  "gained</w>": 4127,
  "now.</w>": 4128,
  "ceed</w>": 4129,
  "Hen": 4130,
  "1.</w>": 4131,
  "Brit": 4132,
  "of,</w>": 4133,
  "loved</w>": 4134,
  "terrible</w>": 4135,
  "fifty</w>": 4136,
  "prison</w>": 4137,
  "worked</w>": 4138,
  "Bingley,</w>": 4139,
  "beside</w>": 4140,
  "myster": 4141,
  "Pequod": 4142,
  "Tash": 4143,
  "Manette,</w>": 4144,
  "eved</w>": 4145,
  "fil": 4146,
  "human": 4147,
  "discus": 4148,
  "ot</w>": 4149,
  "itions</w>": 4150,
  "offer</w>": 4151,
  "explan": 4152,
  "sto": 4153,
  "trust</w>": 4154,
  "truth</w>": 4155,
  "mess": 4156,
  "Coun": 4157,
  "drive</w>": 4158,
  "utation</w>": 4159,
  "lead</w>": 4160,
  "et-": 4161,
  "small": 4162,
  "Span": 4163,
  "repro": 4164,
  "serious</w>": 4165,
  "Mock</w>": 4166,
  "itself,</w>": 4167,
  "didn’t</w>": 4168,
  "me!</w>": 4169,
  "door.</w>": 4170,
  "yester": 4171,
  "pointing</w>": 4172,
  "ely.</w>": 4173,
  "Alice.</w>": 4174,
  "ounced</w>": 4175,
  "“Is</w>": 4176,
  "th;</w>": 4177,
  "ff</w>": 4178,
  "extraordinary</w>": 4179,
  "“Your</w>": 4180,
  "watch": 4181,
  "piece</w>": 4182,
  "Tw": 4183,
  "ancient</w>": 4184,
  "San</w>": 4185,
  "ope</w>": 4186,
  "Alexand": 4187,
  "decei": 4188,
  "Upon</w>": 4189,
  "absolutely</w>": 4190,
  "duty</w>": 4191,
  "pay</w>": 4192,
  "hid": 4193,
  "Some": 4194,
  "stranger</w>": 4195,
  "blind": 4196,
  "e--": 4197,
  "gentle</w>": 4198,
  "nest</w>": 4199,
  "talked</w>": 4200,
  "Mery": 4201,
  "glance</w>": 4202,
  "Yes,</w>": 4203,
  "a!</w>": 4204,
  "hat</w>": 4205,
  "myst": 4206,
  ",00": 4207,
  "ump</w>": 4208,
  "wine-": 4209,
  "itional</w>": 4210,
  "ishing</w>": 4211,
  "effec": 4212,
  "final</w>": 4213,
  "egr": 4214,
  "develop": 4215,
  "iment</w>": 4216,
  "ages,</w>": 4217,
  "ities,</w>": 4218,
  "centr": 4219,
  "Hist": 4220,
  "4.</w>": 4221,
  "estim": 4222,
  "loss</w>": 4223,
  "instrum": 4224,
  "desired</w>": 4225,
  "difficulty</w>": 4226,
  "mel": 4227,
  "maj": 4228,
  "tting</w>": 4229,
  "lines</w>": 4230,
  "Si": 4231,
  "graph": 4232,
  "agged</w>": 4233,
  "mark": 4234,
  "cell": 4235,
  "pois": 4236,
  "fallen</w>": 4237,
  "grand</w>": 4238,
  "hanging</w>": 4239,
  "I_</w>": 4240,
  "angr": 4241,
  "accustom": 4242,
  "particular": 4243,
  "enever</w>": 4244,
  "charg": 4245,
  "March</w>": 4246,
  "music": 4247,
  "umph": 4248,
  "watching</w>": 4249,
  "“She</w>": 4250,
  "sti": 4251,
  "before.</w>": 4252,
  "shing</w>": 4253,
  "di</w>": 4254,
  "lst</w>": 4255,
  "wife,</w>": 4256,
  "2.</w>": 4257,
  "spirits</w>": 4258,
  "attrac": 4259,
  "paid</w>": 4260,
  "189": 4261,
  "connected</w>": 4262,
  "thi": 4263,
  "ins": 4264,
  "that.</w>": 4265,
  "wak": 4266,
  "jack": 4267,
  "Carton</w>": 4268,
  "applic": 4269,
  "pil": 4270,
  "ext</w>": 4271,
  "organ": 4272,
  "Im": 4273,
  "recomm": 4274,
  "ES": 4275,
  "ce.</w>": 4276,
  "accompan": 4277,
  "sed.</w>": 4278,
  "scre": 4279,
  "force</w>": 4280,
  "trying</w>": 4281,
  "golden</w>": 4282,
  "plainly</w>": 4283,
  "it,”</w>": 4284,
  "one;</w>": 4285,
  "y?</w>": 4286,
  "spee": 4287,
  "thank</w>": 4288,
  "her;</w>": 4289,
  "manners</w>": 4290,
  "pleased</w>": 4291,
  "Dor": 4292,
  "“When</w>": 4293,
  "Gryph": 4294,
  "wore</w>": 4295,
  "oursel": 4296,
  "wonderful</w>": 4297,
  "am.</w>": 4298,
  "LI": 4299,
  "Thus</w>": 4300,
  "satisfied</w>": 4301,
  "ferred</w>": 4302,
  "conqu": 4303,
  "revol": 4304,
  "gentlemen</w>": 4305,
  "days,</w>": 4306,
  "convinced</w>": 4307,
  "occasion</w>": 4308,
  "streets</w>": 4309,
  "ousness</w>": 4310,
  "heart,</w>": 4311,
  "Pember": 4312,
  "be.</w>": 4313,
  "carp": 4314,
  "dark": 4315,
  "alof": 4316,
  "monster</w>": 4317,
  "Starbuck": 4318,
  "Tashte": 4319,
  "regular</w>": 4320,
  "accur": 4321,
  "AI</w>": 4322,
  "including</w>": 4323,
  "exper": 4324,
  "studi": 4325,
  "indic": 4326,
  "study</w>": 4327,
  "ron": 4328,
  "Sim": 4329,
  "cen": 4330,
  "parts</w>": 4331,
  "fair": 4332,
  "ats</w>": 4333,
  "eca": 4334,
  "perceived</w>": 4335,
  "by": 4336,
  "3.</w>": 4337,
  "ince</w>": 4338,
  "PR": 4339,
  "shr": 4340,
  "glass</w>": 4341,
  "Right</w>": 4342,
  "putting</w>": 4343,
  "lose</w>": 4344,
  "mentioned</w>": 4345,
  "es—": 4346,
  "whit": 4347,
  "sorry</w>": 4348,
  "takes</w>": 4349,
  "aci": 4350,
  "opposite</w>": 4351,
  "affection": 4352,
  "join</w>": 4353,
  "unable</w>": 4354,
  "France</w>": 4355,
  "seiz": 4356,
  "somewhat</w>": 4357,
  "evil</w>": 4358,
  "country,</w>": 4359,
  "wait</w>": 4360,
  "nes": 4361,
  "die</w>": 4362,
  "shadow</w>": 4363,
  "exerc": 4364,
  "Lady": 4365,
  "papers</w>": 4366,
  "%</w>": 4367,
  "memory</w>": 4368,
  "elet": 4369,
  "fic</w>": 4370,
  "actions</w>": 4371,
  "opening</w>": 4372,
  "finding</w>": 4373,
  "difference</w>": 4374,
  "z</w>": 4375,
  "sym": 4376,
  "and-": 4377,
  "An</w>": 4378,
  "tory</w>": 4379,
  "aming</w>": 4380,
  "ands</w>": 4381,
  "ter-": 4382,
  "blood": 4383,
  "Aug": 4384,
  "hot</w>": 4385,
  "old,</w>": 4386,
  "oes</w>": 4387,
  "stro": 4388,
  "luck": 4389,
  "book</w>": 4390,
  "considering</w>": 4391,
  "occurred</w>": 4392,
  ".)</w>": 4393,
  "Pres": 4394,
  "ed!</w>": 4395,
  "forgo": 4396,
  "tear": 4397,
  "no,</w>": 4398,
  "ashing</w>": 4399,
  "fire,</w>": 4400,
  "uck</w>": 4401,
  "minute</w>": 4402,
  "grew</w>": 4403,
  "hearing</w>": 4404,
  "wife": 4405,
  "ly;</w>": 4406,
  "ess;</w>": 4407,
  "tell": 4408,
  "also,</w>": 4409,
  "rul": 4410,
  "war</w>": 4411,
  "drove</w>": 4412,
  "Chur": 4413,
  "strength</w>": 4414,
  "equal</w>": 4415,
  "alli": 4416,
  "nephe": 4417,
  "spi": 4418,
  "bell": 4419,
  "journey</w>": 4420,
  "Had</w>": 4421,
  "neighbourh": 4422,
  "heaven": 4423,
  "Thre": 4424,
  "aye,</w>": 4425,
  "wondr": 4426,
  "Tellson’s</w>": 4427,
  "modern</w>": 4428,
  "chan": 4429,
  "direct</w>": 4430,
  "superior</w>": 4431,
  "Chin": 4432,
  "recogn": 4433,
  "ost": 4434,
  "cip": 4435,
  "naturally</w>": 4436,
  "worthy</w>": 4437,
  "red": 4438,
  "s--": 4439,
  "8.</w>": 4440,
  "repl": 4441,
  "window": 4442,
  "mir": 4443,
  "depar": 4444,
  "als,</w>": 4445,
  "Rab": 4446,
  "yes,</w>": 4447,
  "No,</w>": 4448,
  "nerv": 4449,
  "advis": 4450,
  "tears</w>": 4451,
  "dear,</w>": 4452,
  "—</w>": 4453,
  "together.</w>": 4454,
  "wooden</w>": 4455,
  "_you": 4456,
  "accustomed</w>": 4457,
  "ls</w>": 4458,
  "ick,</w>": 4459,
  "quietly</w>": 4460,
  "itated</w>": 4461,
  "green</w>": 4462,
  "meant</w>": 4463,
  "der.</w>": 4464,
  "advantage</w>": 4465,
  "lie</w>": 4466,
  "seen,</w>": 4467,
  "sound": 4468,
  "fain": 4469,
  "ted.</w>": 4470,
  "week</w>": 4471,
  "3,</w>": 4472,
  "finally</w>": 4473,
  "spirit</w>": 4474,
  "outside</w>": 4475,
  "there;</w>": 4476,
  "distr": 4477,
  "enjoy": 4478,
  "Vic": 4479,
  "Every</w>": 4480,
  "intim": 4481,
  "Wal": 4482,
  "glancing</w>": 4483,
  "aunt</w>": 4484,
  "exceedingly</w>": 4485,
  "spor": 4486,
  "afterno": 4487,
  "links</w>": 4488,
  "University</w>": 4489,
  "Anto": 4490,
  "Pross</w>": 4491,
  "de,</w>": 4492,
  "predic": 4493,
  "integr": 4494,
  "bench": 4495,
  "fores": 4496,
  "sumed</w>": 4497,
  "correc": 4498,
  "interesting</w>": 4499,
  "appears</w>": 4500,
  "introduce</w>": 4501,
  "behaviour</w>": 4502,
  "progres": 4503,
  "00</w>": 4504,
  "Even</w>": 4505,
  "immen": 4506,
  "Ed": 4507,
  "ecast": 4508,
  "worse</w>": 4509,
  "atur": 4510,
  "rig": 4511,
  "ED</w>": 4512,
  "hei": 4513,
  "teen</w>": 4514,
  "shut</w>": 4515,
  "then?”</w>": 4516,
  "seldom</w>": 4517,
  "wrong": 4518,
  "waters</w>": 4519,
  "much": 4520,
  "thought": 4521,
  "“F": 4522,
  "notice</w>": 4523,
  "ke.</w>": 4524,
  "tong": 4525,
  "mouth</w>": 4526,
  "leaning</w>": 4527,
  "gloom": 4528,
  "though,</w>": 4529,
  "eful</w>": 4530,
  "ife</w>": 4531,
  "dest</w>": 4532,
  "period</w>": 4533,
  "resem": 4534,
  "sought</w>": 4535,
  "acquainted</w>": 4536,
  "tranqu": 4537,
  "circumstance</w>": 4538,
  "concei": 4539,
  "bearing</w>": 4540,
  "Look</w>": 4541,
  "charge</w>": 4542,
  "beheld</w>": 4543,
  "strike</w>": 4544,
  "Hert": 4545,
  "Ir": 4546,
  "shop</w>": 4547,
  "yellow</w>": 4548,
  "athan</w>": 4549,
  "training</w>": 4550,
  "data</w>": 4551,
  "stem</w>": 4552,
  "gate</w>": 4553,
  "crimin": 4554,
  "aked</w>": 4555,
  "reach</w>": 4556,
  "agon": 4557,
  "ater": 4558,
  "acquir": 4559,
  "aware</w>": 4560,
  "king,</w>": 4561,
  "arti": 4562,
  "&</w>": 4563,
  "are": 4564,
  "30": 4565,
  "III.</w>": 4566,
  "me?”</w>": 4567,
  "waited</w>": 4568,
  "grow</w>": 4569,
  "ago</w>": 4570,
  "soo": 4571,
  "throw</w>": 4572,
  "asked.</w>": 4573,
  "lest</w>": 4574,
  "stop</w>": 4575,
  "whenever</w>": 4576,
  "surprise</w>": 4577,
  "arms,</w>": 4578,
  "distant</w>": 4579,
  "Queen</w>": 4580,
  "ez": 4581,
  "t.”</w>": 4582,
  "beat</w>": 4583,
  "eyes.</w>": 4584,
  "triumph": 4585,
  "soldiers</w>": 4586,
  "forget</w>": 4587,
  "bore</w>": 4588,
  "Pray</w>": 4589,
  "courage</w>": 4590,
  "whilst</w>": 4591,
  "willing</w>": 4592,
  "prepared</w>": 4593,
  "friends,</w>": 4594,
  "experience</w>": 4595,
  "ier</w>": 4596,
  "acious</w>": 4597,
  "attached</w>": 4598,
  "Sol": 4599,
  "sailed</w>": 4600,
  "previous</w>": 4601,
  "thes</w>": 4602,
  "street</w>": 4603,
  "was.</w>": 4604,
  "blu": 4605,
  "ailed</w>": 4606,
  "th-": 4607,
  "Charlotte</w>": 4608,
  "daughter": 4609,
  "joy</w>": 4610,
  "man;</w>": 4611,
  "younger</w>": 4612,
  "short,</w>": 4613,
  "countenance</w>": 4614,
  "singular</w>": 4615,
  "levi": 4616,
  "spot</w>": 4617,
  "aker</w>": 4618,
  "swif": 4619,
  "ré": 4620,
  "marin": 4621,
  "voyage</w>": 4622,
  "ugg": 4623,
  "taining</w>": 4624,
  "methods</w>": 4625,
  "scal": 4626,
  "observe</w>": 4627,
  "original</w>": 4628,
  "benef": 4629,
  "rol": 4630,
  "gen": 4631,
  "works</w>": 4632,
  "Jap": 4633,
  "gain</w>": 4634,
  "curr": 4635,
  "suggest": 4636,
  "Bi": 4637,
  "increas": 4638,
  "depend</w>": 4639,
  "ful.</w>": 4640,
  "Em": 4641,
  "\".</w>": 4642,
  "bid": 4643,
  "usually</w>": 4644,
  "stands</w>": 4645,
  "ic,</w>": 4646,
  "directed</w>": 4647,
  "gives</w>": 4648,
  "poli": 4649,
  "weather</w>": 4650,
  "very": 4651,
  "hung</w>": 4652,
  "lovely</w>": 4653,
  "cand": 4654,
  "Perhaps</w>": 4655,
  "beg</w>": 4656,
  "nur": 4657,
  "Where</w>": 4658,
  "trees</w>": 4659,
  "inn": 4660,
  "bottom</w>": 4661,
  "England</w>": 4662,
  "Republic": 4663,
  "possessed</w>": 4664,
  "employed</w>": 4665,
  "venge": 4666,
  "death.</w>": 4667,
  "completely</w>": 4668,
  "compreh": 4669,
  "equally</w>": 4670,
  "woman,</w>": 4671,
  "toler": 4672,
  "London,</w>": 4673,
  "ever.</w>": 4674,
  "church</w>": 4675,
  "Hor": 4676,
  "Manette</w>": 4677,
  "Cruncher</w>": 4678,
  "ISB": 4679,
  "ISBN</w>": 4680,
  "proble": 4681,
  "test</w>": 4682,
  "tempor": 4683,
  "constr": 4684,
  "edy</w>": 4685,
  "ine.</w>": 4686,
  "ains</w>": 4687,
  "support</w>": 4688,
  "Rec": 4689,
  "quant": 4690,
  "precis": 4691,
  "actually</w>": 4692,
  "picture</w>": 4693,
  "breath": 4694,
  "points</w>": 4695,
  "game</w>": 4696,
  "flow": 4697,
  "up.</w>": 4698,
  "tone</w>": 4699,
  "lifted</w>": 4700,
  "eding</w>": 4701,
  "begin</w>": 4702,
  "bran": 4703,
  "CI": 4704,
  "hes": 4705,
  "rendered</w>": 4706,
  "oil</w>": 4707,
  "intended</w>": 4708,
  "ordered</w>": 4709,
  "depart": 4710,
  "scho": 4711,
  "forgott": 4712,
  "cro": 4713,
  "desper": 4714,
  "gently</w>": 4715,
  "child,</w>": 4716,
  "herself.</w>": 4717,
  "assem": 4718,
  "you?”</w>": 4719,
  "You": 4720,
  "crowd</w>": 4721,
  "broke</w>": 4722,
  "wood</w>": 4723,
  "”—": 4724,
  "business,</w>": 4725,
  "ING": 4726,
  "turns</w>": 4727,
  "rest,</w>": 4728,
  "._</w>": 4729,
  "II</w>": 4730,
  "League</w>": 4731,
  "alone,</w>": 4732,
  "hopes</w>": 4733,
  "Jo": 4734,
  "possible,</w>": 4735,
  "regre": 4736,
  "England": 4737,
  "possible": 4738,
  "Gardiner</w>": 4739,
  "worn</w>": 4740,
  "by,</w>": 4741,
  "Dr.</w>": 4742,
  "tain,</w>": 4743,
  "Jonah</w>": 4744,
  "Sydney</w>": 4745,
  "External</w>": 4746,
  "978": 4747,
  "Co": 4748,
  "model": 4749,
  "propose</w>": 4750,
  "mechan": 4751,
  "exhi": 4752,
  "-like</w>": 4753,
  "chec": 4754,
  "direction</w>": 4755,
  "image</w>": 4756,
  "Gen": 4757,
  "ological</w>": 4758,
  "Hi": 4759,
  "higher</w>": 4760,
  "individ": 4761,
  "addressed</w>": 4762,
  "rust": 4763,
  "Cr": 4764,
  "ask,</w>": 4765,
  "deeply</w>": 4766,
  "blo": 4767,
  "prevent</w>": 4768,
  "leaves</w>": 4769,
  "purpos": 4770,
  "Gi": 4771,
  "earnest": 4772,
  "Duch": 4773,
  "savage</w>": 4774,
  "promised</w>": 4775,
  "wast": 4776,
  "’t": 4777,
  "shrie": 4778,
  "ar.</w>": 4779,
  "contemp": 4780,
  "alter": 4781,
  "mind": 4782,
  "wretched</w>": 4783,
  "idi": 4784,
  "glanced</w>": 4785,
  "ers;</w>": 4786,
  "See</w>": 4787,
  "advent": 4788,
  "history</w>": 4789,
  "pers": 4790,
  "Lou": 4791,
  "to.</w>": 4792,
  "esc": 4793,
  "merch": 4794,
  "pra": 4795,
  "div": 4796,
  "cked</w>": 4797,
  "places</w>": 4798,
  "destruc": 4799,
  "you;</w>": 4800,
  "es’</w>": 4801,
  "earli": 4802,
  "books</w>": 4803,
  "pride</w>": 4804,
  "beauty</w>": 4805,
  "Lizzy,</w>": 4806,
  "acquaintance</w>": 4807,
  "Bingley’s</w>": 4808,
  "tall</w>": 4809,
  "chase</w>": 4810,
  "boy</w>": 4811,
  "fulness</w>": 4812,
  "sensible</w>": 4813,
  "spare</w>": 4814,
  "assured</w>": 4815,
  "windows</w>": 4816,
  "au</w>": 4817,
  "horrible</w>": 4818,
  "Green": 4819,
  "leg</w>": 4820,
  "Isl": 4821,
  "hoist": 4822,
  "Pequod’s</w>": 4823,
  "Monseigneur</w>": 4824,
  "Defarge.</w>": 4825,
  "mender</w>": 4826,
  "ures.</w>": 4827,
  "mach": 4828,
  "ather</w>": 4829,
  "rough</w>": 4830,
  "apping</w>": 4831,
  "publ": 4832,
  "nois": 4833,
  "ons,</w>": 4834,
  "ric</w>": 4835,
  "related</w>": 4836,
  "dge</w>": 4837,
  "events</w>": 4838,
  "detec": 4839,
  "forms</w>": 4840,
  "built</w>": 4841,
  "prove</w>": 4842,
  "Cop": 4843,
  "due</w>": 4844,
  "forecast": 4845,
  "ior</w>": 4846,
  "world.</w>": 4847,
  "mult": 4848,
  "played</w>": 4849,
  "re.</w>": 4850,
  "sted</w>": 4851,
  "F</w>": 4852,
  "Alice": 4853,
  "disappoint": 4854,
  "eat</w>": 4855,
  "lock,</w>": 4856,
  "remembered</w>": 4857,
  "sure,</w>": 4858,
  "Besides,</w>": 4859,
  "’”</w>": 4860,
  "burst</w>": 4861,
  "had": 4862,
  "about,</w>": 4863,
  "“As</w>": 4864,
  "ather": 4865,
  "patri": 4866,
  "grown</w>": 4867,
  "proved</w>": 4868,
  "steady</w>": 4869,
  "letter,</w>": 4870,
  "business": 4871,
  "o’clock</w>": 4872,
  "ground,</w>": 4873,
  "bing</w>": 4874,
  "calm": 4875,
  "evening,</w>": 4876,
  "Nov": 4877,
  "destroyed</w>": 4878,
  "glor": 4879,
  "situation</w>": 4880,
  "town": 4881,
  "aband": 4882,
  "sevent": 4883,
  "w,</w>": 4884,
  "evil": 4885,
  "je": 4886,
  "ant.</w>": 4887,
  "calm</w>": 4888,
  "fit</w>": 4889,
  "express</w>": 4890,
  "dying</w>": 4891,
  "marry</w>": 4892,
  "home.</w>": 4893,
  "So,</w>": 4894,
  "endeavoured</w>": 4895,
  "fem": 4896,
  "Hur": 4897,
  "smil": 4898,
  "Longbourn</w>": 4899,
  "rejo": 4900,
  "travell": 4901,
  "wrec": 4902,
  "Whale’s</w>": 4903,
  "Gab": 4904,
  "Pol": 4905,
  "harpooneer</w>": 4906,
  "Feli": 4907,
  "Evré": 4908,
  "Evrémon": 4909,
  "execu": 4910,
  "sis</w>": 4911,
  "timi": 4912,
  "understanding</w>": 4913,
  "artic": 4914,
  "real": 4915,
  "design</w>": 4916,
  "ain.</w>": 4917,
  "zed</w>": 4918,
  "lef": 4919,
  "extre": 4920,
  "ples</w>": 4921,
  "diver": 4922,
  "cel": 4923,
  "leading</w>": 4924,
  "learn</w>": 4925,
  "Beca": 4926,
  "effect": 4927,
  "ition,</w>": 4928,
  "simple</w>": 4929,
  "phenomen": 4930,
  "ement": 4931,
  "rapidly</w>": 4932,
  "ital</w>": 4933,
  "locked</w>": 4934,
  "huge</w>": 4935,
  "Mean": 4936,
  "tion;</w>": 4937,
  "utt": 4938,
  "spread</w>": 4939,
  "fail</w>": 4940,
  "Cor": 4941,
  "explain</w>": 4942,
  "voc": 4943,
  "all;</w>": 4944,
  "round,</w>": 4945,
  "delight</w>": 4946,
  "me,”</w>": 4947,
  "bank": 4948,
  "tit": 4949,
  "confu": 4950,
  "ging</w>": 4951,
  "shou": 4952,
  "it!</w>": 4953,
  "sir,”</w>": 4954,
  "aring</w>": 4955,
  "creatures</w>": 4956,
  "blow</w>": 4957,
  "succeeded</w>": 4958,
  "lives</w>": 4959,
  "bab": 4960,
  "everybody</w>": 4961,
  "asle": 4962,
  "eping</w>": 4963,
  "flying</w>": 4964,
  "During</w>": 4965,
  "Pis": 4966,
  "od,</w>": 4967,
  "thed</w>": 4968,
  "prince,</w>": 4969,
  "Ter": 4970,
  "wishes</w>": 4971,
  "utmost</w>": 4972,
  "country.</w>": 4973,
  "cruel": 4974,
  "virtu": 4975,
  "his,</w>": 4976,
  "hands.</w>": 4977,
  "aside</w>": 4978,
  "Nothing</w>": 4979,
  "awak": 4980,
  "touched</w>": 4981,
  "father.</w>": 4982,
  "greatly</w>": 4983,
  "gather": 4984,
  "Collins,</w>": 4985,
  "._": 4986,
  "coat</w>": 4987,
  "continually</w>": 4988,
  "kindness</w>": 4989,
  "comfort</w>": 4990,
  "drin": 4991,
  "hope,</w>": 4992,
  "pain</w>": 4993,
  "fingers</w>": 4994,
  "solitary</w>": 4995,
  "lur": 4996,
  "Doctor,</w>": 4997,
  "Ang": 4998,
  "rope</w>": 4999,
  "ivory</w>": 5000,
  "ocean</w>": 5001,
  "sea;</w>": 5002,
  "Peleg": 5003,
  "Jacques</w>": 5004,
  "Carton,</w>": 5005,
  "sical</w>": 5006,
  "special</w>": 5007,
  "task</w>": 5008,
  "ore</w>": 5009,
  "domin": 5010,
  "named</w>": 5011,
  "box</w>": 5012,
  "ample</w>": 5013,
  "coll": 5014,
  "investig": 5015,
  "log": 5016,
  "ific</w>": 5017,
  "ement.</w>": 5018,
  "expen": 5019,
  "Tow": 5020,
  "conver": 5021,
  "approach": 5022,
  "content</w>": 5023,
  "claim</w>": 5024,
  "ice.</w>": 5025,
  "corp": 5026,
  "safe</w>": 5027,
  "soli": 5028,
  "ple,</w>": 5029,
  "accep": 5030,
  "tern</w>": 5031,
  "it?</w>": 5032,
  "doz": 5033,
  "lit</w>": 5034,
  "For,</w>": 5035,
  "English": 5036,
  "darkness</w>": 5037,
  "thro": 5038,
  "pron": 5039,
  "thick</w>": 5040,
  "enor": 5041,
  "grey</w>": 5042,
  "right,</w>": 5043,
  "matters</w>": 5044,
  "“To</w>": 5045,
  "name,</w>": 5046,
  "kis": 5047,
  "than": 5048,
  "perm": 5049,
  "board": 5050,
  "Jun": 5051,
  "principal": 5052,
  "ure;</w>": 5053,
  "rag": 5054,
  "precious</w>": 5055,
  "Never": 5056,
  "urely</w>": 5057,
  "cav": 5058,
  "horse": 5059,
  "offered</w>": 5060,
  "myself.</w>": 5061,
  "part,</w>": 5062,
  "companion</w>": 5063,
  "perfect</w>": 5064,
  "presence</w>": 5065,
  "thee,</w>": 5066,
  "snow": 5067,
  "“Mr.</w>": 5068,
  "cot": 5069,
  "husband,</w>": 5070,
  "fordshi": 5071,
  "--”</w>": 5072,
  "stairs</w>": 5073,
  "anyone</w>": 5074,
  "misery</w>": 5075,
  "striking</w>": 5076,
  "sir.</w>": 5077,
  "bos": 5078,
  "horror</w>": 5079,
  "hair,</w>": 5080,
  "devil</w>": 5081,
  "West</w>": 5082,
  "Leviath": 5083,
  "sailors</w>": 5084,
  "wondrous</w>": 5085,
  "approach</w>": 5086,
  "performance</w>": 5087,
  "igned</w>": 5088,
  "rich</w>": 5089,
  "ently,</w>": 5090,
  "decis": 5091,
  "main</w>": 5092,
  "marks</w>": 5093,
  "arity</w>": 5094,
  "box": 5095,
  "achiev": 5096,
  "ours</w>": 5097,
  "extreme</w>": 5098,
  "ity": 5099,
  "ays</w>": 5100,
  "ty-": 5101,
  "back.</w>": 5102,
  "sust": 5103,
  "playing</w>": 5104,
  "neglec": 5105,
  "leap": 5106,
  "compos": 5107,
  "2,</w>": 5108,
  "temper": 5109,
  "threat": 5110,
  "place.</w>": 5111,
  "sides</w>": 5112,
  "deman": 5113,
  "ump": 5114,
  "“it</w>": 5115,
  "fact,</w>": 5116,
  "Oh!</w>": 5117,
  "crossed</w>": 5118,
  "lodg": 5119,
  "nearer</w>": 5120,
  "“M": 5121,
  "“the</w>": 5122,
  "pulled</w>": 5123,
  "cow": 5124,
  "did,</w>": 5125,
  "myself": 5126,
  "feared</w>": 5127,
  "ed,”</w>": 5128,
  "little,</w>": 5129,
  "altogether</w>": 5130,
  "this.</w>": 5131,
  "red.</w>": 5132,
  "eager</w>": 5133,
  "love,</w>": 5134,
  "er.”</w>": 5135,
  "ished,</w>": 5136,
  "summer</w>": 5137,
  "youth</w>": 5138,
  "government</w>": 5139,
  "fore,</w>": 5140,
  "affairs</w>": 5141,
  "wis": 5142,
  "lof": 5143,
  "deliver": 5144,
  "readily</w>": 5145,
  "ways,</w>": 5146,
  "iously</w>": 5147,
  "ance;</w>": 5148,
  "Henry</w>": 5149,
  "season</w>": 5150,
  "death,</w>": 5151,
  "alled</w>": 5152,
  "mind.</w>": 5153,
  "matter,</w>": 5154,
  "morning.</w>": 5155,
  "light.</w>": 5156,
  "ram": 5157,
  "sprang</w>": 5158,
  "Darcy’s</w>": 5159,
  "Elizabeth’s</w>": 5160,
  "ago,</w>": 5161,
  "s’s</w>": 5162,
  "upper</w>": 5163,
  "lady,</w>": 5164,
  "brother,</w>": 5165,
  "ast.</w>": 5166,
  "mother’s</w>": 5167,
  "law</w>": 5168,
  "ospit": 5169,
  "lot": 5170,
  "apprehen": 5171,
  "rooms</w>": 5172,
  "echo": 5173,
  "ored</w>": 5174,
  "Dick": 5175,
  "Presid": 5176,
  "Cruncher,</w>": 5177,
  "Stryver,</w>": 5178,
  "fying</w>": 5179,
  "tect": 5180,
  "fined</w>": 5181,
  "essing</w>": 5182,
  "headed</w>": 5183,
  "tional</w>": 5184,
  "til": 5185,
  "high-": 5186,
  "serve</w>": 5187,
  "skelet": 5188,
  "IC": 5189,
  "survi": 5190,
  "nine</w>": 5191,
  "confidence</w>": 5192,
  "societ": 5193,
  "separate</w>": 5194,
  "firm</w>": 5195,
  "idel": 5196,
  "ground": 5197,
  "open,</w>": 5198,
  "Jud": 5199,
  "bone</w>": 5200,
  "concern": 5201,
  "violent</w>": 5202,
  "previ": 5203,
  "gam": 5204,
  "reasons</w>": 5205,
  "setting</w>": 5206,
  "highest</w>": 5207,
  "a;</w>": 5208,
  "intention</w>": 5209,
  "imper": 5210,
  "Fed": 5211,
  "rum": 5212,
  "“Now,</w>": 5213,
  "else": 5214,
  "ily,</w>": 5215,
  "swim": 5216,
  "declared</w>": 5217,
  "al;</w>": 5218,
  "insul": 5219,
  "liked</w>": 5220,
  "replied,</w>": 5221,
  "Ser": 5222,
  "lou": 5223,
  "dou": 5224,
  "‘I</w>": 5225,
  "Maj": 5226,
  "me?</w>": 5227,
  "holl": 5228,
  "Der": 5229,
  "guard</w>": 5230,
  "remarked</w>": 5231,
  "sister’s</w>": 5232,
  "bers</w>": 5233,
  "7,</w>": 5234,
  "hoped</w>": 5235,
  "ated.</w>": 5236,
  "Roman</w>": 5237,
  "arose</w>": 5238,
  "attach": 5239,
  "enemy</w>": 5240,
  "antry</w>": 5241,
  "Old</w>": 5242,
  "Victor": 5243,
  "in;</w>": 5244,
  "cher": 5245,
  "note</w>": 5246,
  "Christian</w>": 5247,
  "another,</w>": 5248,
  "conscious</w>": 5249,
  "eight": 5250,
  "strongly</w>": 5251,
  "surrounded</w>": 5252,
  "Wickham,</w>": 5253,
  "Bour": 5254,
  "daughter,</w>": 5255,
  "sisters</w>": 5256,
  "exer": 5257,
  "profession": 5258,
  "vain</w>": 5259,
  "look,</w>": 5260,
  "uff": 5261,
  "pipe</w>": 5262,
  "coron": 5263,
  "lamp</w>": 5264,
  "nigh</w>": 5265,
  "vessel</w>": 5266,
  "darted</w>": 5267,
  "rigg": 5268,
  "tively</w>": 5269,
  "ran": 5270,
  "results</w>": 5271,
  "ses,</w>": 5272,
  "argum": 5273,
  "Pre": 5274,
  "M</w>": 5275,
  "EN": 5276,
  "ini": 5277,
  "moments</w>": 5278,
  "univers": 5279,
  "pose": 5280,
  "leav": 5281,
  "ator": 5282,
  "ths</w>": 5283,
  "gold</w>": 5284,
  "detail": 5285,
  "fati": 5286,
  "adver": 5287,
  "ace.</w>": 5288,
  "discover</w>": 5289,
  "injur": 5290,
  "South</w>": 5291,
  "established</w>": 5292,
  "noticed</w>": 5293,
  "burn": 5294,
  "finished</w>": 5295,
  "_I_</w>": 5296,
  "Don’t</w>": 5297,
  "inclined</w>": 5298,
  "calling</w>": 5299,
  "cause,</w>": 5300,
  "moving</w>": 5301,
  "enorm": 5302,
  "stretched</w>": 5303,
  "indign": 5304,
  "“Very</w>": 5305,
  "Two</w>": 5306,
  "besides</w>": 5307,
  "bitter": 5308,
  "keeping</w>": 5309,
  "body,</w>": 5310,
  "belo": 5311,
  "officers</w>": 5312,
  "CON": 5313,
  "service</w>": 5314,
  "faul": 5315,
  "citizen": 5316,
  "themselves,</w>": 5317,
  "Florentines</w>": 5318,
  "ease</w>": 5319,
  "destro": 5320,
  "bad": 5321,
  "Having</w>": 5322,
  "shoc": 5323,
  "emed</w>": 5324,
  "army</w>": 5325,
  "princip": 5326,
  "weap": 5327,
  "sank</w>": 5328,
  "0.</w>": 5329,
  "ary.</w>": 5330,
  "erce</w>": 5331,
  "horses</w>": 5332,
  "quest</w>": 5333,
  "amiable</w>": 5334,
  "Scot": 5335,
  "Netherfield</w>": 5336,
  "Hertfordshi": 5337,
  "wine</w>": 5338,
  "ly.”</w>": 5339,
  "Irish</w>": 5340,
  "thin</w>": 5341,
  "gratul": 5342,
  "coach</w>": 5343,
  "“Good</w>": 5344,
  "distres": 5345,
  "heart.</w>": 5346,
  "mate</w>": 5347,
  "clothes</w>": 5348,
  "start</w>": 5349,
  "ker": 5350,
  "chair": 5351,
  ",000</w>": 5352,
  "McCar": 5353,
  "Ruc": 5354,
  "Rucast": 5355,
  "isc": 5356,
  "seas</w>": 5357,
  "whalemen</w>": 5358,
  "(199": 5359,
  "independ": 5360,
  "datas": 5361,
  "features</w>": 5362,
  "train</w>": 5363,
  "raise</w>": 5364,
  "weight</w>": 5365,
  "Mod": 5366,
  "instruc": 5367,
  "broad": 5368,
  "tel": 5369,
  "provide</w>": 5370,
  "cam": 5371,
  "int</w>": 5372,
  "tab": 5373,
  "ols</w>": 5374,
  "sty": 5375,
  "As": 5376,
  "bal</w>": 5377,
  "prevent": 5378,
  "working</w>": 5379,
  "port</w>": 5380,
  "orders</w>": 5381,
  "length,</w>": 5382,
  "object": 5383,
  "drop</w>": 5384,
  "Eur": 5385,
  "signs</w>": 5386,
  "Advent": 5387,
  "shel": 5388,
  "wouldn’t</w>": 5389,
  "dry</w>": 5390,
  "lov": 5391,
  "decided</w>": 5392,
  "angry</w>": 5393,
  "’d</w>": 5394,
  "—I</w>": 5395,
  "es!”</w>": 5396,
  "sad</w>": 5397,
  "fully,</w>": 5398,
  "“That’s</w>": 5399,
  "yet": 5400,
  "o’s</w>": 5401,
  "shaking</w>": 5402,
  "gone,</w>": 5403,
  "song": 5404,
  "brea": 5405,
  "mour": 5406,
  "friend.</w>": 5407,
  "imagine</w>": 5408,
  "ise,</w>": 5409,
  "dress</w>": 5410,
  "Duke</w>": 5411,
  "duke</w>": 5412,
  "religi": 5413,
  "retired</w>": 5414,
  "reputation</w>": 5415,
  "infin": 5416,
  "lord</w>": 5417,
  "rested</w>": 5418,
  "possession</w>": 5419,
  "age": 5420,
  "dign": 5421,
  "credit</w>": 5422,
  "fortune,</w>": 5423,
  "lu": 5424,
  "warm</w>": 5425,
  "Mess": 5426,
  "Afri": 5427,
  "ber,</w>": 5428,
  "French": 5429,
  "confess</w>": 5430,
  "prosp": 5431,
  "uary</w>": 5432,
  "reck": 5433,
  "returning</w>": 5434,
  "Spanish</w>": 5435,
  "dearest</w>": 5436,
  "removed</w>": 5437,
  "Lydia’s</w>": 5438,
  "sentim": 5439,
  "Ju": 5440,
  "charm": 5441,
  "sensi": 5442,
  "chap": 5443,
  "summon": 5444,
  "heart": 5445,
  "Cour": 5446,
  "pursued</w>": 5447,
  "Watson,</w>": 5448,
  "wall</w>": 5449,
  "there!</w>": 5450,
  "shud": 5451,
  "Pac": 5452,
  "waves</w>": 5453,
  "Nantucket</w>": 5454,
  "Venge": 5455,
  "boat’s</w>": 5456,
  "Steel": 5457,
  "Steelkil": 5458,
  "Jerry</w>": 5459,
  "syn": 5460,
  "practical</w>": 5461,
  "reduc": 5462,
  "via</w>": 5463,
  "paper,</w>": 5464,
  "ality,</w>": 5465,
  "val,</w>": 5466,
  "reference</w>": 5467,
  "evidence</w>": 5468,
  "Like</w>": 5469,
  "quality</w>": 5470,
  "Fur": 5471,
  "World</w>": 5472,
  "improv": 5473,
  "edge</w>": 5474,
  "absence</w>": 5475,
  "asser": 5476,
  "Fitz": 5477,
  "series</w>": 5478,
  "others.</w>": 5479,
  "auth": 5480,
  "attack</w>": 5481,
  "claim": 5482,
  "waist": 5483,
  "burning</w>": 5484,
  "lock": 5485,
  "sooner</w>": 5486,
  "pale</w>": 5487,
  "Indeed,</w>": 5488,
  "enough,</w>": 5489,
  "solemn": 5490,
  "yourself,</w>": 5491,
  "forehead</w>": 5492,
  "condem": 5493,
  "pity</w>": 5494,
  "alone.</w>": 5495,
  "lon": 5496,
  "loose</w>": 5497,
  "ed?</w>": 5498,
  "stern": 5499,
  "bones</w>": 5500,
  "his": 5501,
  "girls</w>": 5502,
  "bringing</w>": 5503,
  "wise,</w>": 5504,
  "ing,”</w>": 5505,
  "mad</w>": 5506,
  "“Why</w>": 5507,
  "ING</w>": 5508,
  "AND</w>": 5509,
  "OF</w>": 5510,
  "order": 5511,
  "ulous</w>": 5512,
  "utter</w>": 5513,
  "weeks</w>": 5514,
  "end.</w>": 5515,
  "dressed</w>": 5516,
  "thinks</w>": 5517,
  "Sept": 5518,
  "November</w>": 5519,
  "endeavour</w>": 5520,
  "state,</w>": 5521,
  "fear,</w>": 5522,
  "gentlemen,</w>": 5523,
  "kness</w>": 5524,
  "arrival</w>": 5525,
  "attenti": 5526,
  "ceased</w>": 5527,
  "hide": 5528,
  "Lucas</w>": 5529,
  "curiosity</w>": 5530,
  "sir.”</w>": 5531,
  "ley,</w>": 5532,
  "wretch": 5533,
  "Sun": 5534,
  "sacri": 5535,
  "innocent</w>": 5536,
  "Good</w>": 5537,
  "tossed</w>": 5538,
  "wrink": 5539,
  "colum": 5540,
  "deadly</w>": 5541,
  "ub</w>": 5542,
  "rolling</w>": 5543,
  "deck": 5544,
  "harpoon</w>": 5545,
  "Lorry.</w>": 5546,
  "-</w>": 5547,
  "requi": 5548,
  "net": 5549,
  "gest": 5550,
  "conc": 5551,
  "pled</w>": 5552,
  "contro": 5553,
  "complex": 5554,
  "vul": 5555,
  "on-": 5556,
  "experim": 5557,
  "critical</w>": 5558,
  "acle</w>": 5559,
  "significant</w>": 5560,
  "generation</w>": 5561,
  "ground.</w>": 5562,
  "growing</w>": 5563,
  "path</w>": 5564,
  "mented</w>": 5565,
  "ustri": 5566,
  "event": 5567,
  "mos": 5568,
  "excep": 5569,
  "eds</w>": 5570,
  "tack": 5571,
  "smoo": 5572,
  "quis": 5573,
  "advance</w>": 5574,
  "ator</w>": 5575,
  "y:</w>": 5576,
  "forming</w>": 5577,
  "ES</w>": 5578,
  "soft</w>": 5579,
  "Is": 5580,
  "tains</w>": 5581,
  "personal</w>": 5582,
  "Just</w>": 5583,
  "queer</w>": 5584,
  "eyed</w>": 5585,
  "all.”</w>": 5586,
  "meeting</w>": 5587,
  "es?”</w>": 5588,
  "“Why,</w>": 5589,
  "do.</w>": 5590,
  "solemn</w>": 5591,
  "chim": 5592,
  "aking</w>": 5593,
  "immense</w>": 5594,
  "tail</w>": 5595,
  "more": 5596,
  "on.”</w>": 5597,
  "unfortunate</w>": 5598,
  "whispered</w>": 5599,
  "Those</w>": 5600,
  "watched</w>": 5601,
  "ull": 5602,
  "recovered</w>": 5603,
  "fresh": 5604,
  "an;</w>": 5605,
  "ago": 5606,
  "France,</w>": 5607,
  "powers</w>": 5608,
  "cy</w>": 5609,
  "suffered</w>": 5610,
  "suspici": 5611,
  "deb": 5612,
  "consideration</w>": 5613,
  "ti</w>": 5614,
  "d’": 5615,
  "uce</w>": 5616,
  "tumul": 5617,
  "Messer</w>": 5618,
  "retre": 5619,
  "river</w>": 5620,
  "Kitty</w>": 5621,
  "Have</w>": 5622,
  "occasionally</w>": 5623,
  "family.</w>": 5624,
  "Elizabeth.</w>": 5625,
  "eless": 5626,
  "fellow,</w>": 5627,
  "embrac": 5628,
  "cerem": 5629,
  "society</w>": 5630,
  "interested</w>": 5631,
  "fire.</w>": 5632,
  "street,</w>": 5633,
  "ee</w>": 5634,
  "seren": 5635,
  "forty</w>": 5636,
  "Lestr": 5637,
  "Roy": 5638,
  "Hoo": 5639,
  "Darnay,</w>": 5640,
  "Stryver</w>": 5641,
  "201": 5642,
  "chall": 5643,
  "depend": 5644,
  "en-": 5645,
  "method": 5646,
  "pursuit</w>": 5647,
  "deliber": 5648,
  "adap": 5649,
  "ributed</w>": 5650,
  "CER": 5651,
  "entific</w>": 5652,
  "architecture</w>": 5653,
  "compet": 5654,
  "avail": 5655,
  "published</w>": 5656,
  "antic</w>": 5657,
  "physi": 5658,
  "berg": 5659,
  "becomes</w>": 5660,
  "valuable</w>": 5661,
  "ded": 5662,
  "Pl": 5663,
  "produced</w>": 5664,
  "distinct</w>": 5665,
  "move</w>": 5666,
  "importance</w>": 5667,
  "success</w>": 5668,
  "local</w>": 5669,
  "skin</w>": 5670,
  "rang": 5671,
  "pe</w>": 5672,
  "powerful</w>": 5673,
  "increased</w>": 5674,
  "Chi": 5675,
  "facts</w>": 5676,
  "Fre": 5677,
  "could,</w>": 5678,
  "da": 5679,
  "aid,</w>": 5680,
  "go.</w>": 5681,
  "handed</w>": 5682,
  "umber": 5683,
  "Will</w>": 5684,
  "loud</w>": 5685,
  "again;</w>": 5686,
  "sne": 5687,
  "stir": 5688,
  "handsome</w>": 5689,
  "table.</w>": 5690,
  "uneas": 5691,
  "names</w>": 5692,
  "carrying</w>": 5693,
  "escape</w>": 5694,
  "eagerly</w>": 5695,
  "beloved</w>": 5696,
  "good,</w>": 5697,
  "honest</w>": 5698,
  "character,</w>": 5699,
  "himself": 5700,
  "lege</w>": 5701,
  "devoted</w>": 5702,
  "dared</w>": 5703,
  "Mil": 5704,
  "posses": 5705,
  "spend</w>": 5706,
  "est.</w>": 5707,
  "peace</w>": 5708,
  "troubled</w>": 5709,
  "dam": 5710,
  "dread</w>": 5711,
  "hidden</w>": 5712,
  "British</w>": 5713,
  "misfortun": 5714,
  "impression</w>": 5715,
  "soul,</w>": 5716,
  "refu": 5717,
  "seat</w>": 5718,
  "exha": 5719,
  "line,</w>": 5720,
  "suspic": 5721,
  "breakfast": 5722,
  "sake,</w>": 5723,
  "quit</w>": 5724,
  "convic": 5725,
  "congratul": 5726,
  "him?”</w>": 5727,
  "receiving</w>": 5728,
  "quitted</w>": 5729,
  "’s.</w>": 5730,
  "arge": 5731,
  "teeth</w>": 5732,
  "lighted</w>": 5733,
  "£</w>": 5734,
  "mate,</w>": 5735,
  "Whale,</w>": 5736,
  "voyage,</w>": 5737,
  "main-": 5738,
  "Felix</w>": 5739,
  "Loo": 5740,
  "identi": 5741,
  "optimi": 5742,
  "concep": 5743,
  "\",</w>": 5744,
  "compared</w>": 5745,
  "polic": 5746,
  "mani": 5747,
  "acks</w>": 5748,
  "system</w>": 5749,
  "existing</w>": 5750,
  "value</w>": 5751,
  "--the</w>": 5752,
  "extrac": 5753,
  "emerg": 5754,
  "released</w>": 5755,
  "0.": 5756,
  "ific": 5757,
  "Japan": 5758,
  "virt": 5759,
  "showing</w>": 5760,
  "AIL": 5761,
  "volun": 5762,
  "forces</w>": 5763,
  "bill": 5764,
  "Because</w>": 5765,
  "5,</w>": 5766,
  "understand": 5767,
  "accord": 5768,
  "attend": 5769,
  "tree</w>": 5770,
  "Among</w>": 5771,
  "Val": 5772,
  "ry,</w>": 5773,
  "truly</w>": 5774,
  "fast,</w>": 5775,
  "ire</w>": 5776,
  "doors</w>": 5777,
  "pushed</w>": 5778,
  "feet,</w>": 5779,
  "ignorant</w>": 5780,
  "jum": 5781,
  "_that_</w>": 5782,
  "fond</w>": 5783,
  "puzz": 5784,
  "frightened</w>": 5785,
  "suppose,</w>": 5786,
  "ed!”</w>": 5787,
  "said.</w>": 5788,
  "cle,</w>": 5789,
  "y!”</w>": 5790,
  "concluded</w>": 5791,
  "delighted</w>": 5792,
  "ten,</w>": 5793,
  "gh,</w>": 5794,
  "laughed</w>": 5795,
  "sky</w>": 5796,
  "“It’s</w>": 5797,
  "start": 5798,
  "been,</w>": 5799,
  "sister": 5800,
  "card": 5801,
  "protec": 5802,
  "double</w>": 5803,
  "ashing": 5804,
  "fish,</w>": 5805,
  "enn": 5806,
  "tis": 5807,
  "gazing</w>": 5808,
  "Machiavelli</w>": 5809,
  "PRIN": 5810,
  "career</w>": 5811,
  "chiefly</w>": 5812,
  "subject,</w>": 5813,
  "connection</w>": 5814,
  "lion</w>": 5815,
  "inhabit": 5816,
  "obtained</w>": 5817,
  "able;</w>": 5818,
  "so;</w>": 5819,
  "persuade</w>": 5820,
  "storm</w>": 5821,
  "build": 5822,
  "ouring</w>": 5823,
  "Pag": 5824,
  "money,</w>": 5825,
  "barbar": 5826,
  "bes": 5827,
  "dead,</w>": 5828,
  "desi": 5829,
  "amid</w>": 5830,
  "restr": 5831,
  "ourselves</w>": 5832,
  "persuaded</w>": 5833,
  "leagu": 5834,
  "indul": 5835,
  "believe,</w>": 5836,
  "craft</w>": 5837,
  "commanded</w>": 5838,
  "town,</w>": 5839,
  "still": 5840,
  "ember,</w>": 5841,
  "anybody</w>": 5842,
  "companion": 5843,
  "[_": 5844,
  "1894</w>": 5845,
  "Allen": 5846,
  "manner.</w>": 5847,
  "d!</w>": 5848,
  "benevol": 5849,
  "sake</w>": 5850,
  "estic</w>": 5851,
  "excited</w>": 5852,
  "Satur": 5853,
  "Octo": 5854,
  "breaking</w>": 5855,
  "hither": 5856,
  "regarded</w>": 5857,
  "Yor": 5858,
  "ge,</w>": 5859,
  "bed.</w>": 5860,
  "itude,</w>": 5861,
  "Fitzwil": 5862,
  "Fitzwilli": 5863,
  "too.</w>": 5864,
  "sum</w>": 5865,
  "Cham": 5866,
  "ish.</w>": 5867,
  "New": 5868,
  "strangely</w>": 5869,
  "inside</w>": 5870,
  "pho": 5871,
  "Ban": 5872,
  "board,</w>": 5873,
  "ashes</w>": 5874,
  "mass</w>": 5875,
  "national</w>": 5876,
  "National</w>": 5877,
  "bulwar": 5878,
  "“Aye,</w>": 5879,
  "Genev": 5880,
  "courty": 5881,
  "Darnay": 5882,
  "seman": 5883,
  "cross-": 5884,
  "envir": 5885,
  "put": 5886,
  "objects</w>": 5887,
  "magn": 5888,
  "cases</w>": 5889,
  "uous</w>": 5890,
  "Frank": 5891,
  "stric": 5892,
  "resour": 5893,
  "corpor": 5894,
  "--</w>": 5895,
  "atory</w>": 5896,
  "intent</w>": 5897,
  "Reg": 5898,
  "activ": 5899,
  "noise</w>": 5900,
  "discre": 5901,
  "energ": 5902,
  "performed</w>": 5903,
  "que</w>": 5904,
  "es:</w>": 5905,
  "space</w>": 5906,
  "full": 5907,
  "aug": 5908,
  "audi": 5909,
  "bridg": 5910,
  "motion</w>": 5911,
  "propos": 5912,
  "popular</w>": 5913,
  "stic": 5914,
  "work.</w>": 5915,
  "To": 5916,
  "Can</w>": 5917,
  "4,</w>": 5918,
  "once.</w>": 5919,
  "tend": 5920,
  "[1": 5921,
  "[1]</w>": 5922,
  "entering</w>": 5923,
  "uggl": 5924,
  "aspect</w>": 5925,
  "sting</w>": 5926,
  "en’s</w>": 5927,
  "twice</w>": 5928,
  "centre</w>": 5929,
  "question,</w>": 5930,
  "over.</w>": 5931,
  "finger</w>": 5932,
  "off.</w>": 5933,
  "nervous</w>": 5934,
  "Come,</w>": 5935,
  "“E": 5936,
  "with,</w>": 5937,
  "somehow</w>": 5938,
  "owned</w>": 5939,
  "nic": 5940,
  "eager": 5941,
  "win</w>": 5942,
  "immediate</w>": 5943,
  "“Of</w>": 5944,
  "nobody</w>": 5945,
  "doubt,</w>": 5946,
  "ratt": 5947,
  "encourag": 5948,
  "kill</w>": 5949,
  "yards</w>": 5950,
  "gged</w>": 5951,
  "nothing,</w>": 5952,
  "royal</w>": 5953,
  "favourite</w>": 5954,
  "Beau": 5955,
  "witness</w>": 5956,
  "done.</w>": 5957,
  "understood</w>": 5958,
  "uttered</w>": 5959,
  "excuse</w>": 5960,
  "enterpris": 5961,
  "moti": 5962,
  "years.</w>": 5963,
  "property</w>": 5964,
  "empty</w>": 5965,
  "ister</w>": 5966,
  "age;</w>": 5967,
  "Vit": 5968,
  "ston": 5969,
  "contempl": 5970,
  "Church</w>": 5971,
  "dignity</w>": 5972,
  "peril": 5973,
  "partly</w>": 5974,
  "command</w>": 5975,
  "awa": 5976,
  "minds</w>": 5977,
  "lively</w>": 5978,
  "accompanied</w>": 5979,
  "obvious</w>": 5980,
  "so.”</w>": 5981,
  "river": 5982,
  "sincer": 5983,
  "fatal</w>": 5984,
  "utterly</w>": 5985,
  "Rus": 5986,
  "arily</w>": 5987,
  "servant</w>": 5988,
  "desol": 5989,
  "bodily</w>": 5990,
  "thirty</w>": 5991,
  "road,</w>": 5992,
  "haw": 5993,
  "species</w>": 5994,
  "cousin</w>": 5995,
  "itute</w>": 5996,
  "affectionate</w>": 5997,
  "Copy": 5998,
  "Copyright</w>": 5999,
  "]]</w>": 6000,
  "rain</w>": 6001,
  "assur": 6002,
  "awful</w>": 6003,
  "“‘I</w>": 6004,
  "asted</w>": 6005,
  "chair,</w>": 6006,
  "Youn": 6007,
  "shoo": 6008,
  "James</w>": 6009,
  "gal": 6010,
  "sailing</w>": 6011,
  "destin": 6012,
  "earth,</w>": 6013,
  "Arab": 6014,
  "..": 6015,
  "Greenland</w>": 6016,
  "sman</w>": 6017,
  "cabin</w>": 6018,
  "Defarge": 6019,
  "Monseigneur,</w>": 6020,
  ".\"</w>": 6021,
  "affected</w>": 6022,
  "istic</w>": 6023,
  "uses</w>": 6024,
  "bound": 6025,
  "dangerous</w>": 6026,
  "Des": 6027,
  "remaining</w>": 6028,
  "propor": 6029,
  "reasonable</w>": 6030,
  "comparis": 6031,
  "k-": 6032,
  "sively</w>": 6033,
  "pull</w>": 6034,
  "acquired</w>": 6035,
  "certainty</w>": 6036,
  "ines,</w>": 6037,
  "regard": 6038,
  "M.</w>": 6039,
  "event</w>": 6040,
  "dev": 6041,
  "oughly</w>": 6042,
  "eled</w>": 6043,
  "assist</w>": 6044,
  "ces</w>": 6045,
  "Inst": 6046,
  "forward": 6047,
  "advanced</w>": 6048,
  "Only</w>": 6049,
  "yield</w>": 6050,
  "writing</w>": 6051,
  "leis": 6052,
  "fix": 6053,
  "assistance</w>": 6054,
  "oil": 6055,
  "f,</w>": 6056,
  "envelop": 6057,
  "Long</w>": 6058,
  "thing;</w>": 6059,
  "shoulder": 6060,
  "pin": 6061,
  "narrow</w>": 6062,
  "nothing.</w>": 6063,
  "fet": 6064,
  "consul": 6065,
  "once,</w>": 6066,
  "And,</w>": 6067,
  "two,</w>": 6068,
  "t,”</w>": 6069,
  "_your": 6070,
  "Mag": 6071,
  "theless</w>": 6072,
  "bow</w>": 6073,
  "enormous</w>": 6074,
  "much,</w>": 6075,
  "minutes,</w>": 6076,
  "“For</w>": 6077,
  "smoke</w>": 6078,
  "throwing</w>": 6079,
  "alarm": 6080,
  "Dormou": 6081,
  "kni": 6082,
  "Majest": 6083,
  "ball": 6084,
  "flam": 6085,
  "disappear": 6086,
  "Turtle</w>": 6087,
  "unhappy</w>": 6088,
  "ef,</w>": 6089,
  "court</w>": 6090,
  "grass</w>": 6091,
  "CONCER": 6092,
  "CONCERN": 6093,
  "_The</w>": 6094,
  "Therefore,</w>": 6095,
  "won</w>": 6096,
  "prosper": 6097,
  "extingu": 6098,
  "record</w>": 6099,
  "bestowed</w>": 6100,
  "health</w>": 6101,
  "August</w>": 6102,
  "oblig": 6103,
  "military</w>": 6104,
  "este": 6105,
  "hated</w>": 6106,
  "disgr": 6107,
  "anxiety</w>": 6108,
  "truth,</w>": 6109,
  "resist": 6110,
  "virtue</w>": 6111,
  "our.</w>": 6112,
  "ishment</w>": 6113,
  "prospect</w>": 6114,
  "parted</w>": 6115,
  "vex": 6116,
  "hast</w>": 6117,
  "ears,</w>": 6118,
  "listening</w>": 6119,
  "[_Copyright</w>": 6120,
  "Allen._": 6121,
  "Allen._]]</w>": 6122,
  "Mic": 6123,
  "--I</w>": 6124,
  "better.</w>": 6125,
  "hour,</w>": 6126,
  "furnit": 6127,
  "be;</w>": 6128,
  "group</w>": 6129,
  "apart": 6130,
  "gradually</w>": 6131,
  "business.</w>": 6132,
  "excit": 6133,
  "Lak": 6134,
  "cried,</w>": 6135,
  "earthly</w>": 6136,
  "Whe": 6137,
  "dark,</w>": 6138,
  "aul": 6139,
  "whir": 6140,
  "fles": 6141,
  "harpooneers</w>": 6142,
  "hammo": 6143,
  "Aye,</w>": 6144,
  "crew,</w>": 6145,
  "Flask,</w>": 6146,
  "Ph": 6147,
  "Lucie,</w>": 6148,
  "media</w>": 6149,
  "fication</w>": 6150,
  "engine": 6151,
  "dynam": 6152,
  "Res": 6153,
  "ates,</w>": 6154,
  "itor": 6155,
  "term</w>": 6156,
  "reasoning</w>": 6157,
  "path": 6158,
  "-based</w>": 6159,
  "ition.</w>": 6160,
  "agent</w>": 6161,
  "science</w>": 6162,
  "libr": 6163,
  "ogi": 6164,
  "assu": 6165,
  "ulti": 6166,
  "aud": 6167,
  "depl": 6168,
  "mun": 6169,
  "larger</w>": 6170,
  "resolution</w>": 6171,
  "ac</w>": 6172,
  "func": 6173,
  "the-": 6174,
  "cy": 6175,
  "where,</w>": 6176,
  "theory</w>": 6177,
  "discovery</w>": 6178,
  "ing:</w>": 6179,
  "abilities</w>": 6180,
  "chem": 6181,
  "induc": 6182,
  "aps</w>": 6183,
  "previously</w>": 6184,
  "demand</w>": 6185,
  "social</w>": 6186,
  "TA": 6187,
  "weak</w>": 6188,
  "ture": 6189,
  "underst": 6190,
  "el.</w>": 6191,
  "Por": 6192,
  "overcome</w>": 6193,
  "symbo": 6194,
  "necessity</w>": 6195,
  "ent;</w>": 6196,
  "26": 6197,
  "cust": 6198,
  "ority</w>": 6199,
  "pag": 6200,
  "instant": 6201,
  "continue</w>": 6202,
  "Why,</w>": 6203,
  "down.</w>": 6204,
  "listen</w>": 6205,
  "know.</w>": 6206,
  "Ma": 6207,
  "head;</w>": 6208,
  "as!</w>": 6209,
  "taught</w>": 6210,
  "“to</w>": 6211,
  "passion": 6212,
  "_you_</w>": 6213,
  "tone,</w>": 6214,
  "what’s</w>": 6215,
  "stairs,</w>": 6216,
  "drun": 6217,
  "’em</w>": 6218,
  "y—": 6219,
  "“So</w>": 6220,
  "ades</w>": 6221,
  "spoke,</w>": 6222,
  "result</w>": 6223,
  "aceful</w>": 6224,
  "plan</w>": 6225,
  "saying,</w>": 6226,
  "“if</w>": 6227,
  "pau": 6228,
  "boy,</w>": 6229,
  "comfortable</w>": 6230,
  "cauti": 6231,
  "beat": 6232,
  "exclaimed</w>": 6233,
  "rud": 6234,
  "mine,</w>": 6235,
  "roc": 6236,
  "answered,</w>": 6237,
  "proud</w>": 6238,
  "tide</w>": 6239,
  "Was</w>": 6240,
  "twelve</w>": 6241,
  "may,</w>": 6242,
  "enz": 6243,
  "have,</w>": 6244,
  "ruin</w>": 6245,
  "princes</w>": 6246,
  "ved.</w>": 6247,
  "midst</w>": 6248,
  "destroy</w>": 6249,
  "Nevertheless,</w>": 6250,
  "oppres": 6251,
  "captain,</w>": 6252,
  "emper": 6253,
  "provided</w>": 6254,
  "History</w>": 6255,
  "ley": 6256,
  "indiffer": 6257,
  "grati": 6258,
  "exhaust": 6259,
  "dashed</w>": 6260,
  "prevented</w>": 6261,
  "approached</w>": 6262,
  "bank</w>": 6263,
  "fitted</w>": 6264,
  "gentleman,</w>": 6265,
  "suspec": 6266,
  "forward,</w>": 6267,
  "buried</w>": 6268,
  "laugh</w>": 6269,
  "pray</w>": 6270,
  "ells</w>": 6271,
  "colour</w>": 6272,
  "fli": 6273,
  "earnest</w>": 6274,
  "lips,</w>": 6275,
  "aunt,</w>": 6276,
  "breakfast</w>": 6277,
  "coat,</w>": 6278,
  "tender": 6279,
  "bitter</w>": 6280,
  "madam": 6281,
  "hospit": 6282,
  "one.”</w>": 6283,
  "eye": 6284,
  "proceeded</w>": 6285,
  "instant,</w>": 6286,
  "name.</w>": 6287,
  "bless</w>": 6288,
  "ed?”</w>": 6289,
  "remembr": 6290,
  "to-morrow": 6291,
  "Heaven</w>": 6292,
  "Apri": 6293,
  "grief</w>": 6294,
  "Baker</w>": 6295,
  "tap": 6296,
  "photo": 6297,
  "thrust</w>": 6298,
  "floor</w>": 6299,
  "professional</w>": 6300,
  "mates,</w>": 6301,
  "eph": 6302,
  "dum": 6303,
  "Leviathan</w>": 6304,
  "island": 6305,
  "Washing": 6306,
  "Bildad,</w>": 6307,
  "spout</w>": 6308,
  "Dick</w>": 6309,
  "SAIL": 6310,
  "SAILOR": 6311,
  "Solom": 6312,
  "Clerval</w>": 6313,
  "Tir": 6314,
  "zation</w>": 6315,
  "strugg": 6316,
  "ments,</w>": 6317,
  "questions</w>": 6318,
  "H</w>": 6319,
  "recent</w>": 6320,
  "deri": 6321,
  "anning</w>": 6322,
  "central</w>": 6323,
  "modal</w>": 6324,
  "relation": 6325,
  "cross</w>": 6326,
  "Bri": 6327,
  "perceive</w>": 6328,
  "Sci": 6329,
  "liter": 6330,
  "cher</w>": 6331,
  "ents.</w>": 6332,
  "relations</w>": 6333,
  "gran": 6334,
  "Sa": 6335,
  "games</w>": 6336,
  "suffer</w>": 6337,
  "carefully</w>": 6338,
  "melan": 6339,
  "unning</w>": 6340,
  "Sup": 6341,
  "usion</w>": 6342,
  "inspir": 6343,
  "required</w>": 6344,
  "cloud</w>": 6345,
  "ants,</w>": 6346,
  "K</w>": 6347,
  "g,</w>": 6348,
  "PA": 6349,
  "buck": 6350,
  "X.</w>": 6351,
  "afterwards,</w>": 6352,
  "falling</w>": 6353,
  "sed;</w>": 6354,
  "catch</w>": 6355,
  "ah,</w>": 6356,
  "of.</w>": 6357,
  "garden</w>": 6358,
  "“for</w>": 6359,
  "shining</w>": 6360,
  "Come</w>": 6361,
  "Tell</w>": 6362,
  "choly</w>": 6363,
  "race</w>": 6364,
  "them.”</w>": 6365,
  "snat": 6366,
  "silence,</w>": 6367,
  "wood,</w>": 6368,
  "“Who</w>": 6369,
  "_me": 6370,
  "folded</w>": 6371,
  "murder</w>": 6372,
  "crim": 6373,
  "evidently</w>": 6374,
  "thunder": 6375,
  "lets</w>": 6376,
  "fight</w>": 6377,
  "Take</w>": 6378,
  "share</w>": 6379,
  "justice</w>": 6380,
  "nav": 6381,
  "sun,</w>": 6382,
  "would,</w>": 6383,
  "CONCERNING</w>": 6384,
  "June</w>": 6385,
  "year,</w>": 6386,
  "Alexander</w>": 6387,
  "battle</w>": 6388,
  "September</w>": 6389,
  "office</w>": 6390,
  "daily</w>": 6391,
  "cloth": 6392,
  "inquiries</w>": 6393,
  "astern</w>": 6394,
  "another.</w>": 6395,
  "wishing</w>": 6396,
  "numerous</w>": 6397,
  "ancy</w>": 6398,
  "etr": 6399,
  "counsel": 6400,
  "ed—": 6401,
  "counter": 6402,
  "thri": 6403,
  "seeking</w>": 6404,
  "9,</w>": 6405,
  "body.</w>": 6406,
  "us;</w>": 6407,
  "delicate</w>": 6408,
  "horse</w>": 6409,
  "street": 6410,
  "allow": 6411,
  "affor": 6412,
  "--that</w>": 6413,
  "gigan": 6414,
  "“On</w>": 6415,
  "niec": 6416,
  "immediat": 6417,
  "Netherfiel": 6418,
  "d.”</w>": 6419,
  "familiar</w>": 6420,
  "smile</w>": 6421,
  "happy,</w>": 6422,
  "Georgi": 6423,
  "circle</w>": 6424,
  "instinc": 6425,
  "God!</w>": 6426,
  "Did</w>": 6427,
  "top-": 6428,
  "ler</w>": 6429,
  "heavily</w>": 6430,
  "moon": 6431,
  "den,</w>": 6432,
  "outer</w>": 6433,
  "hearts</w>": 6434,
  "boats,</w>": 6435,
  "ench": 6436,
  "whale;</w>": 6437,
  "canni": 6438,
  "seamen</w>": 6439,
  "Nantucke": 6440,
  "’st</w>": 6441,
  "North</w>": 6442,
  "wine-shop</w>": 6443,
  "madame,</w>": 6444,
  "President</w>": 6445,
  "ology,</w>": 6446,
  "stoc": 6447,
  "control</w>": 6448,
  "demonstrate</w>": 6449,
  "sim": 6450,
  "P</w>": 6451,
  "calcul": 6452,
  "building</w>": 6453,
  "haz": 6454,
  "eness,</w>": 6455,
  "informed</w>": 6456,
  "invari": 6457,
  "request": 6458,
  "common": 6459,
  "Lat": 6460,
  "TI": 6461,
  "practic": 6462,
  "explain": 6463,
  "amoun": 6464,
  "confirm": 6465,
  "coar": 6466,
  "pig": 6467,
  "deeper</w>": 6468,
  "utch</w>": 6469,
  "invitation</w>": 6470,
  "distance,</w>": 6471,
  "ature</w>": 6472,
  "ideas</w>": 6473,
  "useful</w>": 6474,
  "careful</w>": 6475,
  "um,</w>": 6476,
  "ush": 6477,
  "ning,</w>": 6478,
  "Do": 6479,
  "arch": 6480,
  "ended,</w>": 6481,
  "happen</w>": 6482,
  "“Well": 6483,
  "they": 6484,
  "somewhere</w>": 6485,
  "Austr": 6486,
  "ouse,</w>": 6487,
  "bat": 6488,
  "corner,</w>": 6489,
  "forgotten</w>": 6490,
  "bright": 6491,
  "grow": 6492,
  "dull</w>": 6493,
  "brown</w>": 6494,
  "continued,</w>": 6495,
  "melancholy</w>": 6496,
  "despair</w>": 6497,
  "their": 6498,
  "please</w>": 6499,
  "children,</w>": 6500,
  "stoo": 6501,
  "woman": 6502,
  "sounds</w>": 6503,
  "rock": 6504,
  "mouth,</w>": 6505,
  "faint</w>": 6506,
  "’ve</w>": 6507,
  "telling</w>": 6508,
  "constant</w>": 6509,
  "flew</w>": 6510,
  "shake</w>": 6511,
  "extremely</w>": 6512,
  "bows</w>": 6513,
  "rav": 6514,
  "most": 6515,
  "fight": 6516,
  "least,</w>": 6517,
  "troub": 6518,
  "spok": 6519,
  "piti": 6520,
  "That’s</w>": 6521,
  "day;</w>": 6522,
  "obst": 6523,
  "eth</w>": 6524,
  "out;</w>": 6525,
  "official</w>": 6526,
  "Prin": 6527,
  "prophe": 6528,
  "appointed</w>": 6529,
  "blance</w>": 6530,
  "Vene": 6531,
  "Veneti": 6532,
  "peas": 6533,
  "dir": 6534,
  "food</w>": 6535,
  "ca,</w>": 6536,
  "Italy</w>": 6537,
  "eternal</w>": 6538,
  "lofty</w>": 6539,
  "spring</w>": 6540,
  "divided</w>": 6541,
  "united</w>": 6542,
  "Orsin": 6543,
  "ised,</w>": 6544,
  "chest</w>": 6545,
  "ous;</w>": 6546,
  "uted</w>": 6547,
  "likewise</w>": 6548,
  "purpo": 6549,
  "flat": 6550,
  "disposition</w>": 6551,
  "weary</w>": 6552,
  "whale": 6553,
  "pav": 6554,
  "Aust": 6555,
  "k;</w>": 6556,
  "dwell": 6557,
  "division</w>": 6558,
  "quarter</w>": 6559,
  "ing-room</w>": 6560,
  "Wickham’s</w>": 6561,
  "happiness,</w>": 6562,
  "ade,</w>": 6563,
  "ounce</w>": 6564,
  "journe": 6565,
  "rage</w>": 6566,
  "woo": 6567,
  "man!</w>": 6568,
  "chest": 6569,
  "outs</w>": 6570,
  "**": 6571,
  "achel": 6572,
  "sympathy</w>": 6573,
  "crime</w>": 6574,
  "October</w>": 6575,
  "quarter-": 6576,
  "thy": 6577,
  "torn</w>": 6578,
  "shadows</w>": 6579,
  "radi": 6580,
  "Doctor’s</w>": 6581,
  "Pip": 6582,
  "Flask</w>": 6583,
  "Cape</w>": 6584,
  "sails</w>": 6585,
  "SAILOR.</w>": 6586,
  "Jerry,</w>": 6587,
  "Marquis,</w>": 6588,
  "Tran": 6589,
  "challeng": 6590,
  "tech": 6591,
  "source</w>": 6592,
  "adop": 6593,
  "sights</w>": 6594,
  "onom": 6595,
  "active</w>": 6596,
  "Architec": 6597,
  "vely,</w>": 6598,
  "score</w>": 6599,
  "research</w>": 6600,
  "inher": 6601,
  "originally</w>": 6602,
  "Dis": 6603,
  "contrast</w>": 6604,
  "s:": 6605,
  "commonly</w>": 6606,
  "Sha": 6607,
  "who": 6608,
  "intervals</w>": 6609,
  "Rob": 6610,
  "emin": 6611,
  "satisfaction</w>": 6612,
  "chos": 6613,
  "subsequ": 6614,
  "thetic</w>": 6615,
  "General</w>": 6616,
  "driving</w>": 6617,
  "observation</w>": 6618,
  "ills</w>": 6619,
  "ection</w>": 6620,
  "motion": 6621,
  "view,</w>": 6622,
  "causes</w>": 6623,
  "measure</w>": 6624,
  "revealed</w>": 6625,
  "sufficiently</w>": 6626,
  "Many</w>": 6627,
  "mix": 6628,
  "precisely</w>": 6629,
  "Er": 6630,
  "ds.</w>": 6631,
  "bles</w>": 6632,
  "absolute</w>": 6633,
  "ull,</w>": 6634,
  "WH": 6635,
  "asking</w>": 6636,
  "dream": 6637,
  "Rabbit</w>": 6638,
  "VI.</w>": 6639,
  "brave</w>": 6640,
  "alou": 6641,
  "sight,</w>": 6642,
  "letter": 6643,
  "yourself": 6644,
  "Paris</w>": 6645,
  "that?”</w>": 6646,
  "rac": 6647,
  "it!”</w>": 6648,
  "_your_</w>": 6649,
  "I’d</w>": 6650,
  "tid": 6651,
  "shouted</w>": 6652,
  "rush</w>": 6653,
  "Be</w>": 6654,
  "There’s</w>": 6655,
  "ished.</w>": 6656,
  "pieces</w>": 6657,
  "bowed</w>": 6658,
  "minded</w>": 6659,
  "poured</w>": 6660,
  "hint</w>": 6661,
  "like,</w>": 6662,
  "said:</w>": 6663,
  "answer.</w>": 6664,
  "ins,</w>": 6665,
  "Before</w>": 6666,
  "olo</w>": 6667,
  "Florence</w>": 6668,
  "power,</w>": 6669,
  "Bor": 6670,
  "fill</w>": 6671,
  "uded</w>": 6672,
  "vain": 6673,
  "December</w>": 6674,
  "Great</w>": 6675,
  "ger": 6676,
  "geni": 6677,
  "mountains</w>": 6678,
  "satisfy</w>": 6679,
  "ment;</w>": 6680,
  "Bur": 6681,
  "useless</w>": 6682,
  "cap</w>": 6683,
  "observing</w>": 6684,
  "point,</w>": 6685,
  "swift</w>": 6686,
  "till,</w>": 6687,
  "wick": 6688,
  "House</w>": 6689,
  "borne</w>": 6690,
  "saved</w>": 6691,
  "examined</w>": 6692,
  "admiration</w>": 6693,
  "recover": 6694,
  "shortly</w>": 6695,
  "handsom": 6696,
  "Castruccio,</w>": 6697,
  "interval</w>": 6698,
  "gathered</w>": 6699,
  "doctor": 6700,
  "heard,</w>": 6701,
  "y)</w>": 6702,
  "Bennet’s</w>": 6703,
  "Lucas": 6704,
  "probable</w>": 6705,
  "resent": 6706,
  "Pemberley</w>": 6707,
  "daughters</w>": 6708,
  "hat,</w>": 6709,
  "last.</w>": 6710,
  "matter.</w>": 6711,
  "contri": 6712,
  "visited</w>": 6713,
  "often": 6714,
  "thank": 6715,
  "laying</w>": 6716,
  "keeper</w>": 6717,
  "side;</w>": 6718,
  "air;</w>": 6719,
  "oused</w>": 6720,
  "sir?”</w>": 6721,
  "sick": 6722,
  "attend</w>": 6723,
  "kee": 6724,
  "mates</w>": 6725,
  "existence</w>": 6726,
  "revi": 6727,
  "hitherto</w>": 6728,
  "feet.</w>": 6729,
  "then.</w>": 6730,
  "visitor</w>": 6731,
  "coloured</w>": 6732,
  "prodi": 6733,
  "brow</w>": 6734,
  "philosoph": 6735,
  "heed": 6736,
  "usi": 6737,
  "jac": 6738,
  "police</w>": 6739,
  "omed</w>": 6740,
  "lak": 6741,
  "dust": 6742,
  "emi": 6743,
  "streets,</w>": 6744,
  "roads</w>": 6745,
  "snow</w>": 6746,
  "aloft</w>": 6747,
  "deck.</w>": 6748,
  "blub": 6749,
  "vap": 6750,
  "whiten": 6751,
  "ek</w>": 6752,
  "Marquis</w>": 6753,
  "(200": 6754,
  "problem</w>": 6755,
  "multi-": 6756,
  "analysis</w>": 6757,
  "false</w>": 6758,
  "ligh": 6759,
  "systems</w>": 6760,
  "promising</w>": 6761,
  "prol": 6762,
  "theor": 6763,
  "time": 6764,
  "decre": 6765,
  "Sch": 6766,
  "describe</w>": 6767,
  "oning</w>": 6768,
  "Yet,</w>": 6769,
  "surface</w>": 6770,
  "perform</w>": 6771,
  "signal</w>": 6772,
  "MR": 6773,
  "defin": 6774,
  "shows</w>": 6775,
  "anded</w>": 6776,
  "abor": 6777,
  "ulated</w>": 6778,
  "tted</w>": 6779,
  "rule</w>": 6780,
  "trained</w>": 6781,
  "measure": 6782,
  "ified</w>": 6783,
  "individual</w>": 6784,
  "Vis": 6785,
  "exhib": 6786,
  "cry": 6787,
  "illing</w>": 6788,
  "Ti": 6789,
  "With": 6790,
  "judgment</w>": 6791,
  "veness</w>": 6792,
  "sian</w>": 6793,
  "ologi": 6794,
  "ce;</w>": 6795,
  "da</w>": 6796,
  "month</w>": 6797,
  "ors.</w>": 6798,
  "initi": 6799,
  "fit": 6800,
  "all-": 6801,
  "signed</w>": 6802,
  "Fin": 6803,
  "tly,</w>": 6804,
  "ern": 6805,
  "Tu": 6806,
  "progress</w>": 6807,
  "suming</w>": 6808,
  "mission": 6809,
  "voice.</w>": 6810,
  "height": 6811,
  "lam": 6812,
  "fly</w>": 6813,
  "astic</w>": 6814,
  "le’s</w>": 6815,
  "stup": 6816,
  "Australi": 6817,
  "you’re</w>": 6818,
  "drink</w>": 6819,
  "one’s</w>": 6820,
  "wait": 6821,
  "welcome</w>": 6822,
  "coast</w>": 6823,
  "“Are</w>": 6824,
  "winter</w>": 6825,
  "shape</w>": 6826,
  "bird</w>": 6827,
  "—that</w>": 6828,
  "brok": 6829,
  "two": 6830,
  "“is</w>": 6831,
  "wrong</w>": 6832,
  "decid": 6833,
  "liver": 6834,
  "knoc": 6835,
  "itch": 6836,
  "agony</w>": 6837,
  "enjoy</w>": 6838,
  "“Have</w>": 6839,
  "much.</w>": 6840,
  "is.”</w>": 6841,
  "occasional</w>": 6842,
  "ertain": 6843,
  "say.</w>": 6844,
  "subjects</w>": 6845,
  "danc": 6846,
  "er?”</w>": 6847,
  "list</w>": 6848,
  "tied</w>": 6849,
  "persons</w>": 6850,
  "ina</w>": 6851,
  "Pope</w>": 6852,
  "conspir": 6853,
  "gni": 6854,
  "bare</w>": 6855,
  "friendly</w>": 6856,
  "disposed</w>": 6857,
  "member</w>": 6858,
  "endure</w>": 6859,
  "houses</w>": 6860,
  "omb": 6861,
  "created</w>": 6862,
  "render</w>": 6863,
  "frequent</w>": 6864,
  "station</w>": 6865,
  "proceed</w>": 6866,
  "fellow-": 6867,
  "Agath": 6868,
  "mild</w>": 6869,
  "nobl": 6870,
  "assa": 6871,
  "recall</w>": 6872,
  "formerly</w>": 6873,
  "ago.</w>": 6874,
  "proof</w>": 6875,
  "190": 6876,
  "contrary,</w>": 6877,
  "blow": 6878,
  "Vir": 6879,
  "admire</w>": 6880,
  "winds</w>": 6881,
  "Sometimes</w>": 6882,
  "agreed</w>": 6883,
  "La</w>": 6884,
  "ford,</w>": 6885,
  "Heading</w>": 6886,
  "astonishment</w>": 6887,
  "habit</w>": 6888,
  "--a</w>": 6889,
  "ings;</w>": 6890,
  "ped": 6891,
  "present,</w>": 6892,
  "cold,</w>": 6893,
  "Carol": 6894,
  "uncle": 6895,
  "feelings,</w>": 6896,
  "behol": 6897,
  "painful</w>": 6898,
  "blessed</w>": 6899,
  "eyeing</w>": 6900,
  "hood</w>": 6901,
  "explained</w>": 6902,
  "abhorr": 6903,
  "wedd": 6904,
  "agit": 6905,
  "Young</w>": 6906,
  "remor": 6907,
  "fearful</w>": 6908,
  "referred</w>": 6909,
  "keen</w>": 6910,
  "At": 6911,
  "loun": 6912,
  "tore</w>": 6913,
  "job": 6914,
  "That,</w>": 6915,
  "breast,</w>": 6916,
  "hideous</w>": 6917,
  "escor": 6918,
  "Sh": 6919,
  "Whale;</w>": 6920,
  "Pequod,</w>": 6921,
  "Japanese</w>": 6922,
  "leviath": 6923,
  "knitt": 6924,
  "gunwal": 6925,
  "hoisted</w>": 6926,
  "WNB": 6927,
  "Termin": 6928,
  "classi": 6929,
  "semantic</w>": 6930,
  "Cha": 6931,
  "ability,</w>": 6932,
  "Att": 6933,
  "few": 6934,
  "Langu": 6935,
  "fail": 6936,
  "stic</w>": 6937,
  "tas": 6938,
  "cases,</w>": 6939,
  "assisted</w>": 6940,
  "narrative</w>": 6941,
  "base</w>": 6942,
  "crip": 6943,
  "fied,</w>": 6944,
  "preserve</w>": 6945,
  "judge</w>": 6946,
  "current</w>": 6947,
  "issue</w>": 6948,
  "disci": 6949,
  "specific</w>": 6950,
  "themselves.</w>": 6951,
  "structure</w>": 6952,
  "thereby</w>": 6953,
  "DI": 6954,
  "ators</w>": 6955,
  "horizon": 6956,
  "MA": 6957,
  "guid": 6958,
  "stream</w>": 6959,
  "hic": 6960,
  "b,</w>": 6961,
  "represented</w>": 6962,
  "First</w>": 6963,
  "first": 6964,
  "skill</w>": 6965,
  "known,</w>": 6966,
  "sts</w>": 6967,
  "condition</w>": 6968,
  "graphy</w>": 6969,
  "dance</w>": 6970,
  "example,</w>": 6971,
  "aling</w>": 6972,
  "mal</w>": 6973,
  "atively</w>": 6974,
  "ars</w>": 6975,
  "6,</w>": 6976,
  "cover</w>": 6977,
  "struggl": 6978,
  "LE": 6979,
  "historical</w>": 6980,
  "fru": 6981,
  "Cater": 6982,
  "Caterpill": 6983,
  "this;</w>": 6984,
  "glas": 6985,
  "clim": 6986,
  "legs</w>": 6987,
  "cried.</w>": 6988,
  "Soon</w>": 6989,
  "asham": 6990,
  "low,</w>": 6991,
  "does": 6992,
  "tail,</w>": 6993,
  "Every": 6994,
  "hate</w>": 6995,
  "authority</w>": 6996,
  "paused</w>": 6997,
  "suit</w>": 6998,
  "lonely</w>": 6999,
  "lips.</w>": 7000,
  "_.”</w>": 7001,
  "floor,</w>": 7002,
  "picked</w>": 7003,
  "other;</w>": 7004,
  "anger</w>": 7005,
  "ose,</w>": 7006,
  "craw": 7007,
  "closely</w>": 7008,
  "below</w>": 7009,
  "p.</w>": 7010,
  "hours,</w>": 7011,
  "here.”</w>": 7012,
  "asleep": 7013,
  "slightest</w>": 7014,
  "“At</w>": 7015,
  "vin": 7016,
  "“Pray</w>": 7017,
  "“Thank</w>": 7018,
  "afford</w>": 7019,
  "dancing</w>": 7020,
  "ing?”</w>": 7021,
  "“St": 7022,
  "enth": 7023,
  "alive</w>": 7024,
  "furnished</w>": 7025,
  "pleasure,</w>": 7026,
  "restored</w>": 7027,
  "are.</w>": 7028,
  "concerned</w>": 7029,
  "haun": 7030,
  "ie</w>": 7031,
  "whence</w>": 7032,
  "because,</w>": 7033,
  "ite,</w>": 7034,
  "ingly,</w>": 7035,
  "caval": 7036,
  "accept</w>": 7037,
  "na</w>": 7038,
  "slow</w>": 7039,
  "if,</w>": 7040,
  "God,</w>": 7041,
  "abandoned</w>": 7042,
  "ships,</w>": 7043,
  "attentions</w>": 7044,
  "mounted</w>": 7045,
  "circumstances,</w>": 7046,
  "found,</w>": 7047,
  "principal</w>": 7048,
  "felic": 7049,
  "winter": 7050,
  "Pisto": 7051,
  "opinion,</w>": 7052,
  "ucci": 7053,
  "distinguished</w>": 7054,
  "advice</w>": 7055,
  "attracted</w>": 7056,
  "gratitude</w>": 7057,
  "om.</w>": 7058,
  "belief</w>": 7059,
  "hill</w>": 7060,
  "Thou</w>": 7061,
  "life-": 7062,
  "swear</w>": 7063,
  "her.”</w>": 7064,
  "true,</w>": 7065,
  "fairly</w>": 7066,
  "son.</w>": 7067,
  "gigantic</w>": 7068,
  "gloomy</w>": 7069,
  "outw": 7070,
  "blind</w>": 7071,
  "silently</w>": 7072,
  "er!</w>": 7073,
  "keen": 7074,
  "itable</w>": 7075,
  "De</w>": 7076,
  "suspended</w>": 7077,
  "eption</w>": 7078,
  "ceas": 7079,
  "park</w>": 7080,
  "come.</w>": 7081,
  "fierce</w>": 7082,
  "enste": 7083,
  "dragged</w>": 7084,
  "dim": 7085,
  "advertis": 7086,
  "blaz": 7087,
  "Fle": 7088,
  "April</w>": 7089,
  "hamm": 7090,
  "leaned</w>": 7091,
  "Jur": 7092,
  "profound</w>": 7093,
  "sailor</w>": 7094,
  "harm": 7095,
  "floating</w>": 7096,
  "ghost": 7097,
  "sideways</w>": 7098,
  "Ahab.</w>": 7099,
  "Fedall": 7100,
  "mast</w>": 7101,
  "cottage</w>": 7102,
  "Nantucket,</w>": 7103,
  "Pel": 7104,
  "eleph": 7105,
  "Flask": 7106,
  "Justine</w>": 7107,
  "Lorry’s</w>": 7108,
  "Ube": 7109,
  "parall": 7110,
  "code</w>": 7111,
  "comput": 7112,
  "environ": 7113,
  "align": 7114,
  "zing</w>": 7115,
  "latent</w>": 7116,
  "s),</w>": 7117,
  "cogn": 7118,
  "themat": 7119,
  "machine</w>": 7120,
  "parad": 7121,
  "scientific</w>": 7122,
  "illustr": 7123,
  "derived</w>": 7124,
  "alog": 7125,
  "Multi": 7126,
  "greg": 7127,
  "0,</w>": 7128,
  "additional</w>": 7129,
  "Te": 7130,
  "transl": 7131,
  "squee": 7132,
  "band": 7133,
  "rat": 7134,
  "resear": 7135,
  "measures</w>": 7136,
  "sev": 7137,
  "Juli": 7138,
  "alling</w>": 7139,
  "square</w>": 7140,
  "ural</w>": 7141,
  "presents</w>": 7142,
  "esses</w>": 7143,
  "tensive</w>": 7144,
  "tarily</w>": 7145,
  "propri": 7146,
  "rapid</w>": 7147,
  "captured</w>": 7148,
  "mortal": 7149,
  "fer</w>": 7150,
  "acity</w>": 7151,
  "supply</w>": 7152,
  "solic": 7153,
  "site</w>": 7154,
  "frag": 7155,
  "form,</w>": 7156,
  "promo": 7157,
  "vest": 7158,
  "ing?</w>": 7159,
  "ances.</w>": 7160,
  "press</w>": 7161,
  "ver.</w>": 7162,
  "ster,</w>": 7163,
  "squar": 7164,
  "corresp": 7165,
  "attention.</w>": 7166,
  "aspec": 7167,
  "failed</w>": 7168,
  "Let": 7169,
  "ministr": 7170,
  "OO": 7171,
  "ole</w>": 7172,
  "plent": 7173,
  "school": 7174,
  "wind,</w>": 7175,
  "way;</w>": 7176,
  "possible.</w>": 7177,
  "asts</w>": 7178,
  "“Oh!</w>": 7179,
  "water.</w>": 7180,
  "hurry</w>": 7181,
  "“Let</w>": 7182,
  "birds</w>": 7183,
  "William": 7184,
  "speak,</w>": 7185,
  "grave</w>": 7186,
  "tale</w>": 7187,
  ".’”</w>": 7188,
  "She": 7189,
  "maid": 7190,
  "ower</w>": 7191,
  "hit</w>": 7192,
  "reason,</w>": 7193,
  "busy</w>": 7194,
  "edly,</w>": 7195,
  "know.”</w>": 7196,
  "“One</w>": 7197,
  "needs</w>": 7198,
  "creature,</w>": 7199,
  "relieved</w>": 7200,
  "new,</w>": 7201,
  "gone.</w>": 7202,
  "wants</w>": 7203,
  "now.”</w>": 7204,
  "rubb": 7205,
  "book,</w>": 7206,
  "moral</w>": 7207,
  "round": 7208,
  "must": 7209,
  "Never</w>": 7210,
  "hollow</w>": 7211,
  "master,</w>": 7212,
  "cleared</w>": 7213,
  "advanc": 7214,
  "mouth": 7215,
  "uncommon</w>": 7216,
  "kindly</w>": 7217,
  "shock</w>": 7218,
  "set,</w>": 7219,
  "man.”</w>": 7220,
  "Bet": 7221,
  "yard": 7222,
  "rd</w>": 7223,
  "post</w>": 7224,
  "Italian</w>": 7225,
  "described</w>": 7226,
  "wound</w>": 7227,
  "sinc": 7228,
  "pains</w>": 7229,
  "fate</w>": 7230,
  "urged</w>": 7231,
  "Louis</w>": 7232,
  "150": 7233,
  "Ho": 7234,
  "pover": 7235,
  "composed</w>": 7236,
  "ais": 7237,
  "word.</w>": 7238,
  "ia,</w>": 7239,
  "colon": 7240,
  "rev": 7241,
  "foreign</w>": 7242,
  "secured</w>": 7243,
  "both,</w>": 7244,
  "becoming</w>": 7245,
  "obedi": 7246,
  "acknowledg": 7247,
  "ans.</w>": 7248,
  "privi": 7249,
  "founded</w>": 7250,
  "pray": 7251,
  "scattered</w>": 7252,
  "position,</w>": 7253,
  "city,</w>": 7254,
  "worst</w>": 7255,
  "mercen": 7256,
  "infantry</w>": 7257,
  "discer": 7258,
  "suggested</w>": 7259,
  "favourable</w>": 7260,
  "approaching</w>": 7261,
  "sister.</w>": 7262,
  "servic": 7263,
  "Bast": 7264,
  "Jane’s</w>": 7265,
  "enough.</w>": 7266,
  "nother</w>": 7267,
  "breath</w>": 7268,
  "Watson": 7269,
  "Elizabeth;</w>": 7270,
  "comprehend</w>": 7271,
  "conviction</w>": 7272,
  "bow,</w>": 7273,
  "right.</w>": 7274,
  "bid</w>": 7275,
  "supper</w>": 7276,
  "embarr": 7277,
  "daw": 7278,
  "iest</w>": 7279,
  "Gardiner,</w>": 7280,
  "Street</w>": 7281,
  "away;</w>": 7282,
  "cottag": 7283,
  "England,</w>": 7284,
  "prodigi": 7285,
  "glimp": 7286,
  "trace</w>": 7287,
  "Whether</w>": 7288,
  "apparently</w>": 7289,
  "trades": 7290,
  "penetr": 7291,
  "Three</w>": 7292,
  "smen</w>": 7293,
  "gle": 7294,
  "swiftly</w>": 7295,
  "shone</w>": 7296,
  "gaol": 7297,
  "Dea": 7298,
  "terror</w>": 7299,
  "dim</w>": 7300,
  "swinging</w>": 7301,
  "Shi": 7302,
  "wall,</w>": 7303,
  "moon</w>": 7304,
  "superst": 7305,
  "ast-": 7306,
  "alist": 7307,
  "watery</w>": 7308,
  "coffin</w>": 7309,
  "marv": 7310,
  "eh": 7311,
  "Peleg</w>": 7312,
  "fiend</w>": 7313,
  "Frankenste": 7314,
  "Guil": 7315,
  "Carton.</w>": 7316,
  "Antoine</w>": 7317,
  "chate": 7318,
  "Lu</w>": 7319,
  "Shang": 7320,
  "Shangha": 7321,
  "real-": 7322,
  "ogn": 7323,
  "primar": 7324,
  "Models</w>": 7325,
  "exces": 7326,
  "security</w>": 7327,
  "ible</w>": 7328,
  "s'</w>": 7329,
  "Cam": 7330,
  "zer": 7331,
  "11": 7332,
  "Inter": 7333,
  "add</w>": 7334,
  "Chinese</w>": 7335,
  "ST": 7336,
  "states</w>": 7337,
  "ulation</w>": 7338,
  "associated</w>": 7339,
  "organiz": 7340,
  "explic": 7341,
  "produce</w>": 7342,
  "fidel": 7343,
  "precise</w>": 7344,
  "extended</w>": 7345,
  "explanation</w>": 7346,
  "posing</w>": 7347,
  "-and-": 7348,
  "missed</w>": 7349,
  "ms,</w>": 7350,
  "clearly</w>": 7351,
  "slightly</w>": 7352,
  "eling</w>": 7353,
  "labor": 7354,
  "intelligence</w>": 7355,
  "red-": 7356,
  "tation</w>": 7357,
  "sely</w>": 7358,
  "ger</w>": 7359,
  "projec": 7360,
  "cutting</w>": 7361,
  "material</w>": 7362,
  "rate</w>": 7363,
  "reaching</w>": 7364,
  "time;</w>": 7365,
  "these,</w>": 7366,
  "advers": 7367,
  "introduced</w>": 7368,
  "15</w>": 7369,
  "Su": 7370,
  "VI": 7371,
  "aft</w>": 7372,
  "ean</w>": 7373,
  "pen</w>": 7374,
  "glass": 7375,
  "largest</w>": 7376,
  "Sing": 7377,
  "reven": 7378,
  "IV.</w>": 7379,
  "Turt": 7380,
  "listen": 7381,
  "ing!</w>": 7382,
  "solid</w>": 7383,
  "high,</w>": 7384,
  "ious": 7385,
  "(for</w>": 7386,
  "Poor</w>": 7387,
  "ashamed</w>": 7388,
  "came,</w>": 7389,
  "yesterday</w>": 7390,
  "Paris,</w>": 7391,
  "ly:</w>": 7392,
  "slipped</w>": 7393,
  "answer,</w>": 7394,
  "thum": 7395,
  "“Did</w>": 7396,
  "_,”</w>": 7397,
  "tongu": 7398,
  "together;</w>": 7399,
  "honour": 7400,
  "pulling</w>": 7401,
  "wandered</w>": 7402,
  "smoking</w>": 7403,
  "itself.</w>": 7404,
  "raising</w>": 7405,
  "staring</w>": 7406,
  "ket": 7407,
  "twenty-": 7408,
  "reply</w>": 7409,
  "“Don’t</w>": 7410,
  "so,”</w>": 7411,
  "Therefore</w>": 7412,
  "“All</w>": 7413,
  "“No</w>": 7414,
  "civil</w>": 7415,
  "fully.</w>": 7416,
  "clean</w>": 7417,
  "interrupted</w>": 7418,
  "disg": 7419,
  "ing’s</w>": 7420,
  "soldiers,</w>": 7421,
  "King,</w>": 7422,
  "“what</w>": 7423,
  "here;</w>": 7424,
  "someone</w>": 7425,
  "_her": 7426,
  "Ug": 7427,
  "delightful</w>": 7428,
  "lar": 7429,
  "knife</w>": 7430,
  "heard": 7431,
  "skir": 7432,
  "example</w>": 7433,
  "grand": 7434,
  "hesit": 7435,
  "prudent</w>": 7436,
  "resemblance</w>": 7437,
  "fai": 7438,
  "description</w>": 7439,
  "accepted</w>": 7440,
  "yo": 7441,
  "return,</w>": 7442,
  "etc": 7443,
  "192": 7444,
  "kingdom</w>": 7445,
  "good.</w>": 7446,
  "distrust": 7447,
  "lord,</w>": 7448,
  "corrup": 7449,
  "giv": 7450,
  "tranquill": 7451,
  "delivered</w>": 7452,
  "defend</w>": 7453,
  "Ram": 7454,
  "exped": 7455,
  "ca</w>": 7456,
  "rest.</w>": 7457,
  "night;</w>": 7458,
  "hav": 7459,
  "friends.</w>": 7460,
  "victim": 7461,
  "kind.</w>": 7462,
  "murdered</w>": 7463,
  "blacksmi": 7464,
  "experienced</w>": 7465,
  "refuse</w>": 7466,
  "shore</w>": 7467,
  "passed,</w>": 7468,
  "stopp": 7469,
  "Night</w>": 7470,
  "fiery</w>": 7471,
  "suspicion</w>": 7472,
  "intimate</w>": 7473,
  "endous</w>": 7474,
  "lance</w>": 7475,
  "generous</w>": 7476,
  "chamber</w>": 7477,
  "Lydia,</w>": 7478,
  "Hurst</w>": 7479,
  "dress": 7480,
  "mistaken</w>": 7481,
  "compliment</w>": 7482,
  "ed,--</w>": 7483,
  "along,</w>": 7484,
  "ing-room,</w>": 7485,
  "possibility</w>": 7486,
  "sweet": 7487,
  "street.</w>": 7488,
  "Fri": 7489,
  "Street,</w>": 7490,
  "tic,</w>": 7491,
  "sunk</w>": 7492,
  "murmur": 7493,
  "unaccoun": 7494,
  "regularly</w>": 7495,
  "sitt": 7496,
  "nature,</w>": 7497,
  "ind,</w>": 7498,
  "quantity</w>": 7499,
  "him!”</w>": 7500,
  "heads,</w>": 7501,
  "slee": 7502,
  "stepped</w>": 7503,
  "x,</w>": 7504,
  "fro</w>": 7505,
  "clouds</w>": 7506,
  "fath": 7507,
  "pick</w>": 7508,
  "mystery</w>": 7509,
  "Angel": 7510,
  "emigr": 7511,
  "ubli": 7512,
  "intense</w>": 7513,
  "fow": 7514,
  "swung</w>": 7515,
  "shiver": 7516,
  "steel</w>": 7517,
  "sperm": 7518,
  "Dutch</w>": 7519,
  "perpend": 7520,
  "phant": 7521,
  "in’</w>": 7522,
  "Queequeg’s</w>": 7523,
  "inser": 7524,
  "d’ye</w>": 7525,
  "Tashtego</w>": 7526,
  "spout": 7527,
  "Vol": 7528,
  "shoem": 7529,
  "NBC</w>": 7530,
  "Caen</w>": 7531,
  "independent</w>": 7532,
  "process</w>": 7533,
  "prior</w>": 7534,
  "proposed</w>": 7535,
  "effici": 7536,
  "tual</w>": 7537,
  "2)</w>": 7538,
  "xim": 7539,
  "skeleton</w>": 7540,
  "controll": 7541,
  "explor": 7542,
  "aces</w>": 7543,
  "targ": 7544,
  "story,</w>": 7545,
  "acking</w>": 7546,
  "ed-": 7547,
  "substanti": 7548,
  "25": 7549,
  "test": 7550,
  "pens": 7551,
  "gent</w>": 7552,
  "applied</w>": 7553,
  "comprehen": 7554,
  "promis": 7555,
  "acy,</w>": 7556,
  "10</w>": 7557,
  "ences,</w>": 7558,
  "oy</w>": 7559,
  "Its</w>": 7560,
  "net</w>": 7561,
  "ert</w>": 7562,
  "-in-": 7563,
  "Ver": 7564,
  "thousands</w>": 7565,
  "United</w>": 7566,
  "ities.</w>": 7567,
  "ta": 7568,
  "reflect</w>": 7569,
  "regim": 7570,
  "Mi": 7571,
  "mixed</w>": 7572,
  "aries</w>": 7573,
  "-of-": 7574,
  "Mem": 7575,
  "les.</w>": 7576,
  "HO": 7577,
  "attacked</w>": 7578,
  "ense</w>": 7579,
  "treat": 7580,
  "below,</w>": 7581,
  "vice</w>": 7582,
  "somebody</w>": 7583,
  "fifteen</w>": 7584,
  "you!”</w>": 7585,
  "hastily</w>": 7586,
  "houses,</w>": 7587,
  "day.”</w>": 7588,
  "pound": 7589,
  "better": 7590,
  "hurri": 7591,
  "wet</w>": 7592,
  "mistake</w>": 7593,
  "nevertheless</w>": 7594,
  "comfor": 7595,
  "coward": 7596,
  "ded,</w>": 7597,
  "limbs</w>": 7598,
  "sell</w>": 7599,
  "aid": 7600,
  "dly,</w>": 7601,
  "ured,</w>": 7602,
  "resting</w>": 7603,
  "remark</w>": 7604,
  "helped</w>": 7605,
  "conclusion</w>": 7606,
  "nod": 7607,
  "ties,</w>": 7608,
  "temper</w>": 7609,
  "se.”</w>": 7610,
  "dropping</w>": 7611,
  "tuous</w>": 7612,
  "sharks</w>": 7613,
  "recorded</w>": 7614,
  "bold</w>": 7615,
  "title</w>": 7616,
  "difficulties</w>": 7617,
  "ra</w>": 7618,
  "depri": 7619,
  "hence</w>": 7620,
  "unlike</w>": 7621,
  "citizens</w>": 7622,
  "endless</w>": 7623,
  "cool": 7624,
  "things.</w>": 7625,
  "seize</w>": 7626,
  "vigor": 7627,
  "magistr": 7628,
  "inflic": 7629,
  "exercise</w>": 7630,
  "affair</w>": 7631,
  "imagination</w>": 7632,
  "blood,</w>": 7633,
  "choose</w>": 7634,
  "sanc": 7635,
  "fatigu": 7636,
  "particulars</w>": 7637,
  "made,</w>": 7638,
  "saw,</w>": 7639,
  "announc": 7640,
  "convenient</w>": 7641,
  "impul": 7642,
  "distric": 7643,
  "fled</w>": 7644,
  "ea,</w>": 7645,
  "About</w>": 7646,
  "league</w>": 7647,
  "asting</w>": 7648,
  "Thom": 7649,
  "ns</w>": 7650,
  "consequence</w>": 7651,
  "delicacy</w>": 7652,
  "enched</w>": 7653,
  "Derby": 7654,
  "Derbyshi": 7655,
  "humor": 7656,
  "past": 7657,
  "hundre": 7658,
  "female</w>": 7659,
  "cler": 7660,
  "oman": 7661,
  "marrying</w>": 7662,
  "amuse": 7663,
  "dinner</w>": 7664,
  "dislike</w>": 7665,
  "“Yes;</w>": 7666,
  "“Miss</w>": 7667,
  "Forster</w>": 7668,
  "medit": 7669,
  "cheerful</w>": 7670,
  "bril": 7671,
  "answered.</w>": 7672,
  "summoned</w>": 7673,
  "pause</w>": 7674,
  "hearti": 7675,
  "dozen</w>": 7676,
  "earnestly</w>": 7677,
  "domestic</w>": 7678,
  "k!</w>": 7679,
  "roused</w>": 7680,
  "men;</w>": 7681,
  "ine’s</w>": 7682,
  "assed</w>": 7683,
  "reserved</w>": 7684,
  "Lon": 7685,
  "roads,</w>": 7686,
  "husband’s</w>": 7687,
  "indis": 7688,
  "nearest</w>": 7689,
  "Accor": 7690,
  "winding</w>": 7691,
  "Another</w>": 7692,
  "anting</w>": 7693,
  "still,</w>": 7694,
  "rushing</w>": 7695,
  "gazed</w>": 7696,
  "mysterious</w>": 7697,
  "tub": 7698,
  "shir": 7699,
  "wake</w>": 7700,
  "jol": 7701,
  "Stand": 7702,
  "bun": 7703,
  "hailed</w>": 7704,
  "nights</w>": 7705,
  "Rucastle</w>": 7706,
  "Jonah": 7707,
  "stern</w>": 7708,
  "ain’t</w>": 7709,
  "fishery,</w>": 7710,
  "waters,</w>": 7711,
  "hammer</w>": 7712,
  "’em": 7713,
  "Mu": 7714,
  "Rad": 7715,
  "Bas": 7716,
  "Carton": 7717,
  "pion": 7718,
  "reward</w>": 7719,
  "speci": 7720,
  "rank</w>": 7721,
  "interpre": 7722,
  "Architect": 7723,
  "Large</w>": 7724,
  "Language</w>": 7725,
  "prolong": 7726,
  "rou": 7727,
  "constrain": 7728,
  "ens,</w>": 7729,
  "Hy": 7730,
  "acting</w>": 7731,
  "discuss</w>": 7732,
  "works,</w>": 7733,
  "amm": 7734,
  "pre-": 7735,
  "method</w>": 7736,
  "arise</w>": 7737,
  "Scor": 7738,
  "three-": 7739,
  "20</w>": 7740,
  "See": 7741,
  "clin": 7742,
  "ks;</w>": 7743,
  "ness;</w>": 7744,
  "elevated</w>": 7745,
  "alongside</w>": 7746,
  "pressing</w>": 7747,
  "avoid": 7748,
  "sam": 7749,
  "enable</w>": 7750,
  "date</w>": 7751,
  "iri": 7752,
  "unseen</w>": 7753,
  "Rem": 7754,
  "adic": 7755,
  "inev": 7756,
  "More</w>": 7757,
  "emer": 7758,
  "supported</w>": 7759,
  "own-": 7760,
  "188": 7761,
  "finds</w>": 7762,
  "confined</w>": 7763,
  "percep": 7764,
  "Most</w>": 7765,
  "weigh": 7766,
  "canv": 7767,
  "correspond": 7768,
  "couple</w>": 7769,
  "Europ": 7770,
  "physici": 7771,
  "eb": 7772,
  "small,</w>": 7773,
  "stroke</w>": 7774,
  "rare</w>": 7775,
  "couldn’t</w>": 7776,
  "inches</w>": 7777,
  "would": 7778,
  "people.</w>": 7779,
  "odd</w>": 7780,
  "let’s</w>": 7781,
  "softly</w>": 7782,
  "silence.</w>": 7783,
  "jury</w>": 7784,
  "“Ah,</w>": 7785,
  "guess</w>": 7786,
  "you?</w>": 7787,
  "fee": 7788,
  "smallest</w>": 7789,
  "whist": 7790,
  "shut": 7791,
  "height</w>": 7792,
  "else.</w>": 7793,
  "jaws</w>": 7794,
  "violently</w>": 7795,
  "pent": 7796,
  "why,</w>": 7797,
  "may": 7798,
  "muttered</w>": 7799,
  "US": 7800,
  "that,”</w>": 7801,
  "Hatter</w>": 7802,
  "drink": 7803,
  "not?”</w>": 7804,
  "ce.”</w>": 7805,
  "pattern</w>": 7806,
  "with.</w>": 7807,
  "collected</w>": 7808,
  "settle</w>": 7809,
  "closer</w>": 7810,
  "fancy,</w>": 7811,
  "exclam": 7812,
  "sink</w>": 7813,
  "inquired</w>": 7814,
  "“What": 7815,
  "impatient</w>": 7816,
  "pard": 7817,
  "examine</w>": 7818,
  "him!</w>": 7819,
  "vague</w>": 7820,
  "kissed</w>": 7821,
  "loving</w>": 7822,
  "UC": 7823,
  "ano</w>": 7824,
  "vent</w>": 7825,
  "committed</w>": 7826,
  "pers</w>": 7827,
  "Fer": 7828,
  "dust</w>": 7829,
  "nevertheless,</w>": 7830,
  "compelled</w>": 7831,
  "continual</w>": 7832,
  "reflected</w>": 7833,
  "Nap": 7834,
  "antr": 7835,
  "instances</w>": 7836,
  "how,</w>": 7837,
  "reach": 7838,
  "ch;</w>": 7839,
  "conceal</w>": 7840,
  "cruel</w>": 7841,
  "wicked</w>": 7842,
  "Still,</w>": 7843,
  "destruction</w>": 7844,
  "V</w>": 7845,
  "aul</w>": 7846,
  "intel": 7847,
  "intellec": 7848,
  "runs</w>": 7849,
  "glory</w>": 7850,
  "Febr": 7851,
  "steadily</w>": 7852,
  "unusual</w>": 7853,
  "involved</w>": 7854,
  "to-morrow</w>": 7855,
  "cu": 7856,
  "bridge,</w>": 7857,
  "walls</w>": 7858,
  "murderer</w>": 7859,
  "cursed</w>": 7860,
  "stones</w>": 7861,
  "crossing</w>": 7862,
  "travelled</w>": 7863,
  "sbur": 7864,
  "incident</w>": 7865,
  "Huns": 7866,
  "lucky</w>": 7867,
  "griev": 7868,
  "anguish</w>": 7869,
  "ner.</w>": 7870,
  "gentleman": 7871,
  "God’s</w>": 7872,
  "carriage,</w>": 7873,
  "said,--</w>": 7874,
  "London.</w>": 7875,
  "escaped</w>": 7876,
  "renew": 7877,
  "grateful</w>": 7878,
  "ceremon": 7879,
  "indifferent</w>": 7880,
  "announced</w>": 7881,
  "ming": 7882,
  "seen.</w>": 7883,
  "expectation</w>": 7884,
  "woman’s</w>": 7885,
  "elder</w>": 7886,
  "ked,</w>": 7887,
  "awo": 7888,
  "stagg": 7889,
  "trun": 7890,
  "Bright": 7891,
  "War</w>": 7892,
  "handker": 7893,
  "sleeping</w>": 7894,
  "now;</w>": 7895,
  "Arth": 7896,
  "“Qu": 7897,
  "Grand</w>": 7898,
  "“Yes.”</w>": 7899,
  "mood": 7900,
  "enthusi": 7901,
  "wrapped</w>": 7902,
  "inspect": 7903,
  "Hos": 7904,
  "jet</w>": 7905,
  "thick": 7906,
  "strick": 7907,
  "leg,</w>": 7908,
  "ak,</w>": 7909,
  "me!”</w>": 7910,
  "comr": 7911,
  "big</w>": 7912,
  "Cre": 7913,
  "Simon</w>": 7914,
  "July</w>": 7915,
  "bulk</w>": 7916,
  "Whale": 7917,
  "oil,</w>": 7918,
  "population</w>": 7919,
  "helm": 7920,
  "doublo": 7921,
  "Lakem": 7922,
  "Pip</w>": 7923,
  "Manette": 7924,
  "Gabel": 7925,
  "====</w>": 7926,
  "Phenomen": 7927,
  "Hooper</w>": 7928,
  "struggle</w>": 7929,
  "tok": 7930,
  "metric": 7931,
  "level": 7932,
  "itor</w>": 7933,
  "instance</w>": 7934,
  "dimen": 7935,
  "urr": 7936,
  "limit": 7937,
  "grounds</w>": 7938,
  "anni": 7939,
  "agno": 7940,
  "patient</w>": 7941,
  "Lear": 7942,
  "treated</w>": 7943,
  "flow</w>": 7944,
  "studies</w>": 7945,
  "pract": 7946,
  "safety</w>": 7947,
  "re-": 7948,
  "enu": 7949,
  "ens": 7950,
  "evaluation</w>": 7951,
  "High</w>": 7952,
  "lands": 7953,
  "vices</w>": 7954,
  "risk</w>": 7955,
  "willing": 7956,
  "chain</w>": 7957,
  "ians</w>": 7958,
  "exact</w>": 7959,
  "ailing</w>": 7960,
  "available</w>": 7961,
  "eas,</w>": 7962,
  "gence</w>": 7963,
  "atri": 7964,
  "state-": 7965,
  "mental</w>": 7966,
  "Towards</w>": 7967,
  "als.</w>": 7968,
  "allowing</w>": 7969,
  "characterist": 7970,
  "thoroughly</w>": 7971,
  "newly</w>": 7972,
  "worth": 7973,
  "report</w>": 7974,
  "relate</w>": 7975,
  "include</w>": 7976,
  "missing</w>": 7977,
  "ision</w>": 7978,
  "bin": 7979,
  "size</w>": 7980,
  "island</w>": 7981,
  "novel": 7982,
  "ane</w>": 7983,
  "inno": 7984,
  "en's</w>": 7985,
  "branch</w>": 7986,
  "ments.</w>": 7987,
  "figures</w>": 7988,
  "fields</w>": 7989,
  "tness</w>": 7990,
  "Tru": 7991,
  "yp": 7992,
  "Tun": 7993,
  "Dev": 7994,
  "year.</w>": 7995,
  "attention,</w>": 7996,
  "hypo": 7997,
  "changes</w>": 7998,
  "ting": 7999
}